{
  "version": "1.0",
  "truncation": null,
  "padding": null,
  "added_tokens": [
    {
      "id": 0,
      "content": "[PAD]",
      "single_word": false,
      "lstrip": false,
      "rstrip": false,
      "normalized": false,
      "special": true
    },
    {
      "id": 1,
      "content": "[UNK]",
      "single_word": false,
      "lstrip": false,
      "rstrip": false,
      "normalized": false,
      "special": true
    },
    {
      "id": 2,
      "content": "[BOS]",
      "single_word": false,
      "lstrip": false,
      "rstrip": false,
      "normalized": false,
      "special": true
    },
    {
      "id": 3,
      "content": "[EOS]",
      "single_word": false,
      "lstrip": false,
      "rstrip": false,
      "normalized": false,
      "special": true
    }
  ],
  "normalizer": {
    "type": "Sequence",
    "normalizers": [
      {
        "type": "NFD"
      },
      {
        "type": "Lowercase"
      },
      {
        "type": "StripAccents"
      }
    ]
  },
  "pre_tokenizer": {
    "type": "ByteLevel",
    "add_prefix_space": true,
    "trim_offsets": true,
    "use_regex": true
  },
  "post_processor": {
    "type": "TemplateProcessing",
    "single": [
      {
        "SpecialToken": {
          "id": "[BOS]",
          "type_id": 0
        }
      },
      {
        "Sequence": {
          "id": "A",
          "type_id": 0
        }
      },
      {
        "SpecialToken": {
          "id": "[EOS]",
          "type_id": 0
        }
      }
    ],
    "pair": [
      {
        "SpecialToken": {
          "id": "[BOS]",
          "type_id": 0
        }
      },
      {
        "Sequence": {
          "id": "A",
          "type_id": 0
        }
      },
      {
        "SpecialToken": {
          "id": "[EOS]",
          "type_id": 0
        }
      },
      {
        "Sequence": {
          "id": "B",
          "type_id": 1
        }
      },
      {
        "SpecialToken": {
          "id": "[EOS]",
          "type_id": 1
        }
      }
    ],
    "special_tokens": {
      "[BOS]": {
        "id": "[BOS]",
        "ids": [
          2
        ],
        "tokens": [
          "[BOS]"
        ]
      },
      "[EOS]": {
        "id": "[EOS]",
        "ids": [
          3
        ],
        "tokens": [
          "[EOS]"
        ]
      }
    }
  },
  "decoder": {
    "type": "ByteLevel",
    "add_prefix_space": true,
    "trim_offsets": true,
    "use_regex": true
  },
  "model": {
    "type": "BPE",
    "dropout": null,
    "unk_token": "[UNK]",
    "continuing_subword_prefix": null,
    "end_of_word_suffix": null,
    "fuse_unk": false,
    "byte_fallback": false,
    "ignore_merges": false,
    "vocab": {
      "[PAD]": 0,
      "[UNK]": 1,
      "[BOS]": 2,
      "[EOS]": 3,
      "!": 4,
      "\"": 5,
      "#": 6,
      "$": 7,
      "%": 8,
      "&": 9,
      "'": 10,
      "(": 11,
      ")": 12,
      "*": 13,
      "+": 14,
      ",": 15,
      "-": 16,
      ".": 17,
      "/": 18,
      "0": 19,
      "1": 20,
      "2": 21,
      "3": 22,
      "4": 23,
      "5": 24,
      "6": 25,
      "7": 26,
      "8": 27,
      "9": 28,
      ":": 29,
      ";": 30,
      "<": 31,
      "=": 32,
      ">": 33,
      "?": 34,
      "@": 35,
      "A": 36,
      "B": 37,
      "C": 38,
      "D": 39,
      "E": 40,
      "F": 41,
      "G": 42,
      "H": 43,
      "I": 44,
      "J": 45,
      "K": 46,
      "L": 47,
      "M": 48,
      "N": 49,
      "O": 50,
      "P": 51,
      "Q": 52,
      "R": 53,
      "S": 54,
      "T": 55,
      "U": 56,
      "V": 57,
      "W": 58,
      "X": 59,
      "Y": 60,
      "Z": 61,
      "[": 62,
      "\\": 63,
      "]": 64,
      "^": 65,
      "_": 66,
      "`": 67,
      "a": 68,
      "b": 69,
      "c": 70,
      "d": 71,
      "e": 72,
      "f": 73,
      "g": 74,
      "h": 75,
      "i": 76,
      "j": 77,
      "k": 78,
      "l": 79,
      "m": 80,
      "n": 81,
      "o": 82,
      "p": 83,
      "q": 84,
      "r": 85,
      "s": 86,
      "t": 87,
      "u": 88,
      "v": 89,
      "w": 90,
      "x": 91,
      "y": 92,
      "z": 93,
      "{": 94,
      "|": 95,
      "}": 96,
      "~": 97,
      "¡": 98,
      "¢": 99,
      "£": 100,
      "¤": 101,
      "¥": 102,
      "¦": 103,
      "§": 104,
      "¨": 105,
      "©": 106,
      "ª": 107,
      "«": 108,
      "¬": 109,
      "®": 110,
      "¯": 111,
      "°": 112,
      "±": 113,
      "²": 114,
      "³": 115,
      "´": 116,
      "µ": 117,
      "¶": 118,
      "·": 119,
      "¸": 120,
      "¹": 121,
      "º": 122,
      "»": 123,
      "¼": 124,
      "½": 125,
      "¾": 126,
      "¿": 127,
      "À": 128,
      "Á": 129,
      "Â": 130,
      "Ã": 131,
      "Ä": 132,
      "Å": 133,
      "Æ": 134,
      "Ç": 135,
      "È": 136,
      "É": 137,
      "Ê": 138,
      "Ë": 139,
      "Ì": 140,
      "Í": 141,
      "Î": 142,
      "Ï": 143,
      "Ð": 144,
      "Ñ": 145,
      "Ò": 146,
      "Ó": 147,
      "Ô": 148,
      "Õ": 149,
      "Ö": 150,
      "×": 151,
      "Ø": 152,
      "Ù": 153,
      "Ú": 154,
      "Û": 155,
      "Ü": 156,
      "Ý": 157,
      "Þ": 158,
      "ß": 159,
      "à": 160,
      "á": 161,
      "â": 162,
      "ã": 163,
      "ä": 164,
      "å": 165,
      "æ": 166,
      "ç": 167,
      "è": 168,
      "é": 169,
      "ê": 170,
      "ë": 171,
      "ì": 172,
      "í": 173,
      "î": 174,
      "ï": 175,
      "ð": 176,
      "ñ": 177,
      "ò": 178,
      "ó": 179,
      "ô": 180,
      "õ": 181,
      "ö": 182,
      "÷": 183,
      "ø": 184,
      "ù": 185,
      "ú": 186,
      "û": 187,
      "ü": 188,
      "ý": 189,
      "þ": 190,
      "ÿ": 191,
      "Ā": 192,
      "ā": 193,
      "Ă": 194,
      "ă": 195,
      "Ą": 196,
      "ą": 197,
      "Ć": 198,
      "ć": 199,
      "Ĉ": 200,
      "ĉ": 201,
      "Ċ": 202,
      "ċ": 203,
      "Č": 204,
      "č": 205,
      "Ď": 206,
      "ď": 207,
      "Đ": 208,
      "đ": 209,
      "Ē": 210,
      "ē": 211,
      "Ĕ": 212,
      "ĕ": 213,
      "Ė": 214,
      "ė": 215,
      "Ę": 216,
      "ę": 217,
      "Ě": 218,
      "ě": 219,
      "Ĝ": 220,
      "ĝ": 221,
      "Ğ": 222,
      "ğ": 223,
      "Ġ": 224,
      "ġ": 225,
      "Ģ": 226,
      "ģ": 227,
      "Ĥ": 228,
      "ĥ": 229,
      "Ħ": 230,
      "ħ": 231,
      "Ĩ": 232,
      "ĩ": 233,
      "Ī": 234,
      "ī": 235,
      "Ĭ": 236,
      "ĭ": 237,
      "Į": 238,
      "į": 239,
      "İ": 240,
      "ı": 241,
      "Ĳ": 242,
      "ĳ": 243,
      "Ĵ": 244,
      "ĵ": 245,
      "Ķ": 246,
      "ķ": 247,
      "ĸ": 248,
      "Ĺ": 249,
      "ĺ": 250,
      "Ļ": 251,
      "ļ": 252,
      "Ľ": 253,
      "ľ": 254,
      "Ŀ": 255,
      "ŀ": 256,
      "Ł": 257,
      "ł": 258,
      "Ń": 259,
      "en": 260,
      "er": 261,
      "in": 262,
      "Ġa": 263,
      "Ġt": 264,
      "Ġd": 265,
      "ch": 266,
      "Ġs": 267,
      "on": 268,
      "es": 269,
      "Ġth": 270,
      "un": 271,
      "Ġw": 272,
      "it": 273,
      "is": 274,
      "at": 275,
      "Ġb": 276,
      "an": 277,
      "or": 278,
      "Ġthe": 279,
      "ie": 280,
      "Ġm": 281,
      "re": 282,
      "Ġf": 283,
      "Ġp": 284,
      "Ġe": 285,
      "Ġin": 286,
      "ur": 287,
      "Ġo": 288,
      "al": 289,
      "ar": 290,
      "Ġc": 291,
      "Ġh": 292,
      "ich": 293,
      "Ġan": 294,
      "Ġg": 295,
      "te": 296,
      "as": 297,
      "ion": 298,
      "Ġun": 299,
      "Ġv": 300,
      "le": 301,
      "Ġn": 302,
      "us": 303,
      "ent": 304,
      "ro": 305,
      "Ġof": 306,
      "Ġdie": 307,
      "ing": 308,
      "Ġto": 309,
      "Ġand": 310,
      "Ġbe": 311,
      "ung": 312,
      "Ġder": 313,
      "ll": 314,
      "Ġz": 315,
      "Ġk": 316,
      "ig": 317,
      "Ġund": 318,
      "Ġi": 319,
      "om": 320,
      "ed": 321,
      "Ġl": 322,
      "Ġein": 323,
      "ic": 324,
      "st": 325,
      "Ġis": 326,
      "ra": 327,
      "el": 328,
      "ut": 329,
      "em": 330,
      "Ġre": 331,
      "ir": 332,
      "et": 333,
      "ter": 334,
      "il": 335,
      "ol": 336,
      "ation": 337,
      "am": 338,
      "ten": 339,
      "eit": 340,
      "um": 341,
      "der": 342,
      "Ġver": 343,
      "Ġst": 344,
      "ge": 345,
      "den": 346,
      "Ġau": 347,
      "ies": 348,
      "Ġr": 349,
      "Ġfor": 350,
      "op": 351,
      "hr": 352,
      "ct": 353,
      "ul": 354,
      "sch": 355,
      "de": 356,
      "ber": 357,
      "iv": 358,
      "Ġdas": 359,
      "Ġpro": 360,
      "lich": 361,
      "Ġzu": 362,
      "ab": 363,
      "ot": 364,
      "Ġon": 365,
      "Ġer": 366,
      "im": 367,
      "isch": 368,
      "ier": 369,
      "Ġwe": 370,
      "icht": 371,
      "Ġal": 372,
      "gen": 373,
      "os": 374,
      "and": 375,
      "Ġden": 376,
      "Ġthat": 377,
      "Ġwir": 378,
      "Ġse": 379,
      "ach": 380,
      "est": 381,
      "ess": 382,
      "ly": 383,
      "Ġwh": 384,
      "Ġj": 385,
      "Ġim": 386,
      "ere": 387,
      "Ġso": 388,
      "Ġmit": 389,
      "Ġy": 390,
      "ce": 391,
      "id": 392,
      "omm": 393,
      "Ġvon": 394,
      "ort": 395,
      "Ġit": 396,
      "Ġauf": 397,
      "Ġcon": 398,
      "ÃŁ": 399,
      "Ġge": 400,
      "Ġfur": 401,
      "Ġde": 402,
      "ver": 403,
      "ith": 404,
      "kt": 405,
      "Ġeur": 406,
      "Ġas": 407,
      "Ġwith": 408,
      "ow": 409,
      "Ġist": 410,
      "Ġdies": 411,
      "Ġu": 412,
      "Ġdes": 413,
      "ft": 414,
      "Ġha": 415,
      "Ġne": 416,
      "Ġsie": 417,
      "la": 418,
      "Ġyo": 419,
      "ff": 420,
      "Ġaus": 421,
      "Ġeurop": 422,
      "Ġsch": 423,
      "Ġare": 424,
      "ill": 425,
      "ers": 426,
      "ve": 427,
      "Ġpr": 428,
      "Ġthis": 429,
      "ind": 430,
      "ck": 431,
      "âĢ": 432,
      "Ġ1": 433,
      "Ġle": 434,
      "qu": 435,
      "Ġ(": 436,
      "Ġco": 437,
      "iss": 438,
      "Ġpar": 439,
      "ein": 440,
      "end": 441,
      "Ġma": 442,
      "ist": 443,
      "Ġsp": 444,
      "ate": 445,
      "pp": 446,
      "ah": 447,
      "ad": 448,
      "ik": 449,
      "Ġex": 450,
      "Ġab": 451,
      "ant": 452,
      "Ġmo": 453,
      "Ġsu": 454,
      "th": 455,
      "Ġ2": 456,
      "Ġals": 457,
      "Ġes": 458,
      "Ġor": 459,
      "Ġeine": 460,
      "ungen": 461,
      "Ġdem": 462,
      "men": 463,
      "00": 464,
      "ischen": 465,
      "Ġwer": 466,
      "ib": 467,
      "for": 468,
      "ay": 469,
      "Ġall": 470,
      "nen": 471,
      "Ġch": 472,
      "und": 473,
      "ment": 474,
      "ug": 475,
      "Ġsich": 476,
      "ust": 477,
      "Ġnot": 478,
      "ity": 479,
      "Ġnicht": 480,
      "Ġvor": 481,
      "Ġho": 482,
      "ste": 483,
      "ht": 484,
      "ien": 485,
      "ive": 486,
      "Ġent": 487,
      "ial": 488,
      "sp": 489,
      "ann": 490,
      "Ġkon": 491,
      "ahr": 492,
      "ag": 493,
      "ru": 494,
      "Ġat": 495,
      "uss": 496,
      "Ġuber": 497,
      "Ġen": 498,
      "rom": 499,
      "Ġum": 500,
      "Ġ-": 501,
      "Ġyou": 502,
      "Ġich": 503,
      "Ġme": 504,
      "Ġwerden": 505,
      "ne": 506,
      "Ġby": 507,
      "Ġsh": 508,
      "tel": 509,
      "ass": 510,
      "we": 511,
      "if": 512,
      "Ġar": 513,
      "au": 514,
      "all": 515,
      "Ġcom": 516,
      "ben": 517,
      "ang": 518,
      "Ġhave": 519,
      "Ġdass": 520,
      "Ġuns": 521,
      "igen": 522,
      "Ġcomm": 523,
      "Ġus": 524,
      "Ġwill": 525,
      "uld": 526,
      "ern": 527,
      "Ġwas": 528,
      "Ġam": 529,
      "Ġinter": 530,
      "ak": 531,
      "hal": 532,
      "iel": 533,
      "Ġauch": 534,
      "og": 535,
      "Ġunter": 536,
      "ze": 537,
      "ran": 538,
      "Ġwhich": 539,
      "ions": 540,
      "Ġda": 541,
      "Ġwo": 542,
      "ted": 543,
      "Ġher": 544,
      "Ġfrom": 545,
      "Ġte": 546,
      "Ġhe": 547,
      "du": 548,
      "ure": 549,
      "Ġdo": 550,
      "Ġreg": 551,
      "Ġges": 552,
      "lie": 553,
      "Ġeurope": 554,
      "ission": 555,
      "ain": 556,
      "Ġwor": 557,
      "ungs": 558,
      "aft": 559,
      "ard": 560,
      "ĠâĢ": 561,
      "pt": 562,
      "hen": 563,
      "ine": 564,
      "Ġres": 565,
      "uch": 566,
      "Ġno": 567,
      "Ġwie": 568,
      "Ġsind": 569,
      "ast": 570,
      "Ġman": 571,
      "Ġbes": 572,
      "Ġnach": 573,
      "Ġber": 574,
      "ect": 575,
      "aus": 576,
      "..": 577,
      "Ġwird": 578,
      "ub": 579,
      "Ġeuropa": 580,
      "Ġhab": 581,
      "Ġro": 582,
      "Ġhas": 583,
      "od": 584,
      "iz": 585,
      "Ġgro": 586,
      "Ġdur": 587,
      "Ġih": 588,
      "Ġcan": 589,
      "Ġcomp": 590,
      "ident": 591,
      "ip": 592,
      "Ġpol": 593,
      "tr": 594,
      "Ġour": 595,
      "Ġhat": 596,
      "age": 597,
      "ult": 598,
      "Ġad": 599,
      "ische": 600,
      "ick": 601,
      "are": 602,
      "ens": 603,
      "form": 604,
      "ight": 605,
      "ert": 606,
      "ue": 607,
      "Ġqu": 608,
      "her": 609,
      "llen": 610,
      "ise": 611,
      "art": 612,
      "ia": 613,
      "me": 614,
      "ire": 615,
      "ok": 616,
      "able": 617,
      "cc": 618,
      "Ġbei": 619,
      "keit": 620,
      "enn": 621,
      "utz": 622,
      "Ġzur": 623,
      "etz": 624,
      "port": 625,
      "ap": 626,
      "Ġoder": 627,
      "be": 628,
      "Ġpart": 629,
      "schaft": 630,
      "Ġag": 631,
      "Ġkomm": 632,
      "ament": 633,
      "Ġalso": 634,
      "aten": 635,
      "ige": 636,
      "ore": 637,
      "lo": 638,
      "eren": 639,
      "mer": 640,
      "ud": 641,
      "ations": 642,
      "ark": 643,
      "beit": 644,
      "Ġoff": 645,
      "se": 646,
      "Ġeuropean": 647,
      "Ġwur": 648,
      "rit": 649,
      "Ġhaben": 650,
      "Ġthere": 651,
      "Ġste": 652,
      "ges": 653,
      "Ġ\"": 654,
      "ational": 655,
      "Ġcoun": 656,
      "ical": 657,
      "heit": 658,
      "cht": 659,
      "io": 660,
      "Ġhotel": 661,
      "lichen": 662,
      "ition": 663,
      "Ġfra": 664,
      "ice": 665,
      "ated": 666,
      "oc": 667,
      "Ġtra": 668,
      "ction": 669,
      "Ġeiner": 670,
      "Ġfin": 671,
      "Ġgo": 672,
      "Ġbut": 673,
      "ke": 674,
      "Ġra": 675,
      "Ġser": 676,
      "Ġdurch": 677,
      "Ġparl": 678,
      "tra": 679,
      "gr": 680,
      "Ġfa": 681,
      "dern": 682,
      "ord": 683,
      "Ġpres": 684,
      "Ġwar": 685,
      "Ġgen": 686,
      "Ġ200": 687,
      "elt": 688,
      "Ġgr": 689,
      "Ġsein": 690,
      "ome": 691,
      "Ġdiese": 692,
      "ieren": 693,
      "out": 694,
      "Ġyour": 695,
      "Ġihr": 696,
      "ish": 697,
      "Ġits": 698,
      "ign": 699,
      "fu": 700,
      "per": 701,
      "Ġeinen": 702,
      "Ġfre": 703,
      "pr": 704,
      "Ġdar": 705,
      "Ġunion": 706,
      "'s": 707,
      "tet": 708,
      "iert": 709,
      "ates": 710,
      "Ġprodu": 711,
      "vel": 712,
      "our": 713,
      "Ġspe": 714,
      "Ġapp": 715,
      "chen": 716,
      "ite": 717,
      "cial": 718,
      "ear": 719,
      "Ġintern": 720,
      "ahl": 721,
      "anz": 722,
      "con": 723,
      "ement": 724,
      "ms": 725,
      "Ġdis": 726,
      "sten": 727,
      "Ġmuss": 728,
      "Ġind": 729,
      "ther": 730,
      "yste": 731,
      "ian": 732,
      "Ġherr": 733,
      "Ġkonnen": 734,
      "ary": 735,
      "ose": 736,
      "ember": 737,
      "Ġpre": 738,
      "zu": 739,
      "Ġmore": 740,
      "ide": 741,
      "Ġmr": 742,
      "liche": 743,
      "Ġwenn": 744,
      "Ġcl": 745,
      "hl": 746,
      "Ġzum": 747,
      "cl": 748,
      "Ġcont": 749,
      "Ġcommission": 750,
      "hmen": 751,
      "ank": 752,
      "Ġ3": 753,
      "he": 754,
      "Ġsa": 755,
      "Ġnew": 756,
      "Ġpo": 757,
      "ong": 758,
      "wo": 759,
      "Ġper": 760,
      "Ġwould": 761,
      "Ġ19": 762,
      "fen": 763,
      "Ġone": 764,
      "Ġalle": 765,
      "Ġtheir": 766,
      "Ġbet": 767,
      "ime": 768,
      "Ġob": 769,
      "Ġacc": 770,
      "Ġfe": 771,
      "Ġstr": 772,
      "Ġif": 773,
      "ance": 774,
      "che": 775,
      "ile": 776,
      "Ġihre": 777,
      "ĠâĢĵ": 778,
      "Ġeinem": 779,
      "Ġpos": 780,
      "Ġbeen": 781,
      "ese": 782,
      "Ġnur": 783,
      "Ġpl": 784,
      "ma": 785,
      "chn": 786,
      "one": 787,
      "ase": 788,
      "Ġinform": 789,
      "reat": 790,
      "imm": 791,
      "Ġwurde": 792,
      "Ġla": 793,
      "Ġsho": 794,
      "iff": 795,
      "ute": 796,
      "âĢĻ": 797,
      "Ġinst": 798,
      "Ġkann": 799,
      "gra": 800,
      "ts": 801,
      "ild": 802,
      "ble": 803,
      "chte": 804,
      "atz": 805,
      "Ġthey": 806,
      "Ġdieser": 807,
      "Ġzw": 808,
      "to": 809,
      "Ġeu": 810,
      "Ġwork": 811,
      "gan": 812,
      "Ġup": 813,
      "Ġpolit": 814,
      "oll": 815,
      "Ġfu": 816,
      "Ġev": 817,
      "ame": 818,
      "ugh": 819,
      "Ġjed": 820,
      "Ġtran": 821,
      "Ġshould": 822,
      "Ġpla": 823,
      "land": 824,
      "gt": 825,
      "ally": 826,
      "pro": 827,
      "ĠgroÃŁ": 828,
      "Ġmein": 829,
      "rie": 830,
      "ger": 831,
      "wer": 832,
      "Ġjahr": 833,
      "Ġweit": 834,
      "Ġgem": 835,
      "amp": 836,
      "Ġ.": 837,
      "Ġaber": 838,
      "up": 839,
      "Ġmehr": 840,
      "Ġpe": 841,
      "Ġeuropaischen": 842,
      "ely": 843,
      "Ġpers": 844,
      "ution": 845,
      "ike": 846,
      "Ġout": 847,
      "lic": 848,
      "Ġ,": 849,
      "Ġger": 850,
      "ierung": 851,
      "itat": 852,
      "Ġhin": 853,
      "fe": 854,
      "ater": 855,
      "Ġtak": 856,
      "Ġem": 857,
      "Ġverb": 858,
      "Ġserv": 859,
      "Ġmember": 860,
      "uck": 861,
      "ac": 862,
      "Ġsol": 863,
      "Ġmin": 864,
      "ner": 865,
      "ktion": 866,
      "asident": 867,
      "Ġvery": 868,
      "Ġother": 869,
      "igkeit": 870,
      "bar": 871,
      "ack": 872,
      "Ġzus": 873,
      "Ġcountr": 874,
      "geb": 875,
      "Ġwho": 876,
      "alt": 877,
      "reich": 878,
      "Ġsyste": 879,
      "ho": 880,
      "mit": 881,
      "Ġnoch": 882,
      "ld": 883,
      "Ġbo": 884,
      "Ġthese": 885,
      "ings": 886,
      "Ġmust": 887,
      "Ġlo": 888,
      "...": 889,
      "Ġcons": 890,
      "ĠdaÃŁ": 891,
      "Ġkommission": 892,
      "ommen": 893,
      "Ġarbeit": 894,
      "Ġfir": 895,
      "ities": 896,
      "Ġmen": 897,
      "ces": 898,
      "Ġproble": 899,
      "Ġkein": 900,
      "Ġonly": 901,
      "Ġsoll": 902,
      "bs": 903,
      "Ġbr": 904,
      "Ġneed": 905,
      "Ġsupp": 906,
      "Ġgegen": 907,
      "ink": 908,
      "Ġdire": 909,
      "ors": 910,
      "Ġbec": 911,
      "Ġhand": 912,
      "gram": 913,
      "Ġpresident": 914,
      "ph": 915,
      "atur": 916,
      "Ġbest": 917,
      "ander": 918,
      "Ġhow": 919,
      "Ġyear": 920,
      "Ġmon": 921,
      "halt": 922,
      "Ġprov": 923,
      "fahr": 924,
      "Ġunser": 925,
      "ient": 926,
      "Ġlike": 927,
      "Ġgew": 928,
      "pe": 929,
      "Ġsit": 930,
      "Ġter": 931,
      "Ġperson": 932,
      "pos": 933,
      "Ġany": 934,
      "pl": 935,
      "Ġtime": 936,
      "Ġmar": 937,
      "schen": 938,
      "fuhr": 939,
      "Ġeff": 940,
      "Ġright": 941,
      "Ġaut": 942,
      "Ġvie": 943,
      "ced": 944,
      "olog": 945,
      "wick": 946,
      "Ġinformation": 947,
      "Ġabout": 948,
      "teil": 949,
      "Ġ5": 950,
      "Ġsehr": 951,
      "glie": 952,
      "sib": 953,
      "Ġmark": 954,
      "ry": 955,
      "ri": 956,
      "Ġprasident": 957,
      "Ġinternational": 958,
      "Ġrec": 959,
      "Ġfl": 960,
      "Ġins": 961,
      "stand": 962,
      "Ġbis": 963,
      "Ġ4": 964,
      "ments": 965,
      "Ġwhat": 966,
      "cil": 967,
      "Ġmy": 968,
      "tern": 969,
      "Ġgesch": 970,
      "assen": 971,
      "ject": 972,
      "Ġaf": 973,
      "ious": 974,
      "Ġviel": 975,
      "entr": 976,
      "sta": 977,
      "use": 978,
      "leich": 979,
      ").": 980,
      "uen": 981,
      "Ġhier": 982,
      "nah": 983,
      "Ġmussen": 984,
      "velop": 985,
      "int": 986,
      "olle": 987,
      "hn": 988,
      "Ġinv": 989,
      "unden": 990,
      "xt": 991,
      "rat": 992,
      "get": 993,
      "Ġland": 994,
      "Ġwhen": 995,
      "Ġdevelop": 996,
      "Ġparlament": 997,
      "Ġdam": 998,
      "als": 999,
      "arbeit": 1000,
      "iament": 1001,
      "lin": 1002,
      "ular": 1003,
      "auf": 1004,
      "Ġlie": 1005,
      "cess": 1006,
      "ange": 1007,
      "ammen": 1008,
      "Ġgu": 1009,
      "onder": 1010,
      "igh": 1011,
      "Ġart": 1012,
      "Ġrat": 1013,
      "Ġparliament": 1014,
      "Ġimport": 1015,
      "Ġact": 1016,
      "ans": 1017,
      "Ġele": 1018,
      "Ġmitglie": 1019,
      "Ġtechn": 1020,
      "ents": 1021,
      "led": 1022,
      "Ġstand": 1023,
      "fore": 1024,
      "Ġet": 1025,
      "Ġpeop": 1026,
      "fl": 1027,
      "ibt": 1028,
      "tell": 1029,
      "fol": 1030,
      "ied": 1031,
      "Ġover": 1032,
      "Ġreport": 1033,
      "mo": 1034,
      "Ġwell": 1035,
      "Ġbas": 1036,
      "Ġzeit": 1037,
      "Ġdiesem": 1038,
      "fer": 1039,
      "Ġentwick": 1040,
      "Ġsome": 1041,
      "ale": 1042,
      "wn": 1043,
      "ider": 1044,
      "wend": 1045,
      "Ġstates": 1046,
      "Ġdec": 1047,
      "own": 1048,
      "tschaft": 1049,
      "cy": 1050,
      "man": 1051,
      "ility": 1052,
      "igt": 1053,
      "Ġseit": 1054,
      "Ġrel": 1055,
      "Ġpeople": 1056,
      "ffen": 1057,
      "Ġzusammen": 1058,
      "ail": 1059,
      "halten": 1060,
      "Ġfirst": 1061,
      "tz": 1062,
      "Ġvers": 1063,
      "Ġsc": 1064,
      "lichkeit": 1065,
      "wor": 1066,
      "Ġdieses": 1067,
      "Ġmach": 1068,
      "Ġgemein": 1069,
      "Ġsuch": 1070,
      "Ġkn": 1071,
      "Ġjust": 1072,
      "act": 1073,
      "los": 1074,
      "iger": 1075,
      "ual": 1076,
      "Ġph": 1077,
      "Ġwel": 1078,
      "Ġprogram": 1079,
      "iven": 1080,
      "ause": 1081,
      "Ġgeb": 1082,
      "hor": 1083,
      "ateg": 1084,
      "ks": 1085,
      "Ġben": 1086,
      "ds": 1087,
      "ific": 1088,
      "dition": 1089,
      "Ġunder": 1090,
      "sche": 1091,
      "ism": 1092,
      "Ġass": 1093,
      "Ġhel": 1094,
      "etzt": 1095,
      "Ġfo": 1096,
      "vor": 1097,
      "af": 1098,
      "Ġkl": 1099,
      "Ġmog": 1100,
      "Ġloc": 1101,
      "Ġ20": 1102,
      "Ġinto": 1103,
      "nehmen": 1104,
      "Ġuse": 1105,
      "Ġbeg": 1106,
      "enden": 1107,
      "Ġeing": 1108,
      "Ġworld": 1109,
      "Ġwere": 1110,
      "wie": 1111,
      "Ġrecht": 1112,
      "Ġsystem": 1113,
      "lieÃŁ": 1114,
      "Ġsub": 1115,
      "ices": 1116,
      "ative": 1117,
      "Ġop": 1118,
      "ays": 1119,
      "Ġson": 1120,
      "Ġresp": 1121,
      "iden": 1122,
      "Ġihnen": 1123,
      "Ġfun": 1124,
      "Ġform": 1125,
      "Ġrest": 1126,
      "Ġko": 1127,
      "Ġnow": 1128,
      "),": 1129,
      "Ġever": 1130,
      "Ġdiff": 1131,
      "Ġmochte": 1132,
      "Ġroom": 1133,
      "Ġinc": 1134,
      "Ġgrund": 1135,
      "Ġmost": 1136,
      "zeit": 1137,
      "Ġnational": 1138,
      "Ġhis": 1139,
      "erg": 1140,
      "lung": 1141,
      "conom": 1142,
      "isten": 1143,
      "ree": 1144,
      "eln": 1145,
      "Ġmed": 1146,
      "Ġwicht": 1147,
      "ous": 1148,
      "Ġpra": 1149,
      "Ġsel": 1150,
      "Ġeines": 1151,
      "Ġvom": 1152,
      "Ġbesch": 1153,
      "Ġtr": 1154,
      "Ġget": 1155,
      "Ġunsere": 1156,
      "Ġpolic": 1157,
      "Ġbed": 1158,
      "sen": 1159,
      "Ġsta": 1160,
      "Ġregion": 1161,
      "min": 1162,
      "sicht": 1163,
      "Ġbur": 1164,
      "uber": 1165,
      "ell": 1166,
      "Ġincl": 1167,
      "unt": 1168,
      "Ġleg": 1169,
      "Ġeconom": 1170,
      "ov": 1171,
      "Ġmany": 1172,
      "Ġcountries": 1173,
      "Ġqual": 1174,
      "essen": 1175,
      "Ġunterst": 1176,
      "ory": 1177,
      "Ġthan": 1178,
      "Ġmitglied": 1179,
      "Ġorgan": 1180,
      "Ġpartic": 1181,
      "Ġthem": 1182,
      "Ġsupport": 1183,
      "ron": 1184,
      "Ġsicher": 1185,
      "ention": 1186,
      "Ġexp": 1187,
      "Ġstat": 1188,
      "ures": 1189,
      "Ġpub": 1190,
      "Ġwahr": 1191,
      "ĠauÃŁ": 1192,
      "Ġkom": 1193,
      "Ġdeb": 1194,
      "ple": 1195,
      "ken": 1196,
      "Ġbar": 1197,
      "les": 1198,
      "enz": 1199,
      "Ġcouncil": 1200,
      "Ġmarket": 1201,
      "kte": 1202,
      "Ġcar": 1203,
      "Ġnatur": 1204,
      "Ġbus": 1205,
      "ages": 1206,
      "av": 1207,
      "fin": 1208,
      "Ġzwe": 1209,
      "itte": 1210,
      "ards": 1211,
      "schla": 1212,
      "Ġagain": 1213,
      "Ġmenschen": 1214,
      "Ġav": 1215,
      "Ġbereit": 1216,
      "Ġmake": 1217,
      "Ġander": 1218,
      "Ġsee": 1219,
      "Ġsowie": 1220,
      "Ġzwischen": 1221,
      "Ġcre": 1222,
      "Ġeinz": 1223,
      "kl": 1224,
      "hand": 1225,
      "Ġwelt": 1226,
      "Ġmet": 1227,
      "iet": 1228,
      "Ġbericht": 1229,
      "ruck": 1230,
      "Ġsitu": 1231,
      "Ġbecause": 1232,
      "Ġimportant": 1233,
      "Ġgibt": 1234,
      "els": 1235,
      "uf": 1236,
      "wir": 1237,
      "Ġgel": 1238,
      "Ġcent": 1239,
      "Ġmay": 1240,
      "Ġbu": 1241,
      "ween": 1242,
      "dit": 1243,
      "Ġdr": 1244,
      "Ġtur": 1245,
      "Ġbetween": 1246,
      "urs": 1247,
      "Ġdirect": 1248,
      "abe": 1249,
      "Ġtake": 1250,
      "dem": 1251,
      "ues": 1252,
      "ren": 1253,
      "co": 1254,
      "ating": 1255,
      "kommen": 1256,
      "inn": 1257,
      "Ġcle": 1258,
      "Ġversch": 1259,
      "Ġrequ": 1260,
      "Ġhigh": 1261,
      "staaten": 1262,
      "Ġreal": 1263,
      "Ġgroup": 1264,
      "tre": 1265,
      "sible": 1266,
      "Ġevery": 1267,
      "Ġfam": 1268,
      "Ġpropos": 1269,
      "Ġverf": 1270,
      "Ġconc": 1271,
      "Ġ6": 1272,
      "Ġend": 1273,
      "halb": 1274,
      "Ġac": 1275,
      "Ġemp": 1276,
      "ware": 1277,
      "ric": 1278,
      "Ġgreat": 1279,
      "Ġwurden": 1280,
      "issen": 1281,
      "day": 1282,
      "forder": 1283,
      "ives": 1284,
      "igung": 1285,
      "Ġunterstutz": 1286,
      "Ġjo": 1287,
      "Ġteil": 1288,
      "Ġgood": 1289,
      "Ġ'": 1290,
      "ett": 1291,
      "Ġwhere": 1292,
      "Ġtrans": 1293,
      "Ġeven": 1294,
      "Ġwieder": 1295,
      "Ġweiter": 1296,
      "lle": 1297,
      "zie": 1298,
      "Ġeuropaische": 1299,
      "ster": 1300,
      "Ġbl": 1301,
      "Ġfind": 1302,
      "Ġthro": 1303,
      "legen": 1304,
      "net": 1305,
      "Ġenerg": 1306,
      "mal": 1307,
      "Ġerw": 1308,
      "Ġcommun": 1309,
      "amen": 1310,
      "ister": 1311,
      "Ġfall": 1312,
      "Ġgener": 1313,
      "Ġwirtschaft": 1314,
      "stell": 1315,
      "Ġtwo": 1316,
      "och": 1317,
      "ever": 1318,
      "Ġafter": 1319,
      "ful": 1320,
      "Ġconf": 1321,
      "je": 1322,
      "ved": 1323,
      "Ġbere": 1324,
      "oth": 1325,
      "Ġfest": 1326,
      "fur": 1327,
      "atter": 1328,
      "Ġihrer": 1329,
      "Ġkeine": 1330,
      "ats": 1331,
      "Ġricht": 1332,
      "zial": 1333,
      "off": 1334,
      "Ġide": 1335,
      "Ġdamit": 1336,
      "ys": 1337,
      "nis": 1338,
      "ath": 1339,
      "Ġke": 1340,
      "Ġeng": 1341,
      "cept": 1342,
      "Ġbie": 1343,
      "Ġgleich": 1344,
      "Ġtransp": 1345,
      "Ġchar": 1346,
      "cted": 1347,
      "rauch": 1348,
      "Ġmade": 1349,
      "Ġfar": 1350,
      "Ġthose": 1351,
      "Ġvis": 1352,
      "Ġthrough": 1353,
      "fall": 1354,
      "Ġproduct": 1355,
      "Ġpolicy": 1356,
      "Ġdann": 1357,
      "bst": 1358,
      "erung": 1359,
      "vern": 1360,
      "Ġhad": 1361,
      "Ġange": 1362,
      "Ġcour": 1363,
      "ĠâĢŀ": 1364,
      "Ġschw": 1365,
      "Ġyears": 1366,
      "Ġdeut": 1367,
      "Ġlang": 1368,
      "Ġanderen": 1369,
      "uman": 1370,
      "olit": 1371,
      "ace": 1372,
      "Ġval": 1373,
      "Ġway": 1374,
      "Ġhere": 1375,
      "tro": 1376,
      "Ġair": 1377,
      "Ġvo": 1378,
      "Ġproblem": 1379,
      "com": 1380,
      "Ġiss": 1381,
      "ession": 1382,
      "Ġindust": 1383,
      "Ġmus": 1384,
      "Ġbeste": 1385,
      "Ġdel": 1386,
      "Ġnum": 1387,
      "Ġ199": 1388,
      "ital": 1389,
      "Ġbre": 1390,
      "Ġknow": 1391,
      "Ġ[": 1392,
      "Ġimmer": 1393,
      "ss": 1394,
      "Ġhaus": 1395,
      "Ġganz": 1396,
      "Ġorder": 1397,
      "ischer": 1398,
      "unft": 1399,
      "fort": 1400,
      "Ġview": 1401,
      "Ġmitgliedstaaten": 1402,
      "Ġprof": 1403,
      "Ġservice": 1404,
      "trag": 1405,
      "Ġur": 1406,
      "Ġsim": 1407,
      "Ġsm": 1408,
      "âĢľ": 1409,
      "Ġinstit": 1410,
      "ina": 1411,
      "Ġfund": 1412,
      "ium": 1413,
      "Ġakt": 1414,
      "Ġhowever": 1415,
      "unkt": 1416,
      "Ġ7": 1417,
      "lish": 1418,
      "Ġgut": 1419,
      "weise": 1420,
      "zug": 1421,
      "Ġsec": 1422,
      "Ġfol": 1423,
      "Ġze": 1424,
      "king": 1425,
      "immer": 1426,
      "geben": 1427,
      "Ġeben": 1428,
      "Ġmill": 1429,
      "Ġagre": 1430,
      "Ġgar": 1431,
      "Ġsin": 1432,
      "Ġschon": 1433,
      "adt": 1434,
      "richt": 1435,
      "Ġkonn": 1436,
      "Ġbeing": 1437,
      "Ġpriv": 1438,
      "ument": 1439,
      "Ġfact": 1440,
      "erv": 1441,
      "innen": 1442,
      "Ġlong": 1443,
      "Ġlos": 1444,
      "rei": 1445,
      "ower": 1446,
      "Ġfran": 1447,
      "acht": 1448,
      "bal": 1449,
      "Ġ8": 1450,
      "Ġ10": 1451,
      "Ġdiesen": 1452,
      "isation": 1453,
      "Ġselbst": 1454,
      "Ġcur": 1455,
      "Ġfamil": 1456,
      "Ġel": 1457,
      "Ġbelie": 1458,
      "Ġfuhr": 1459,
      "bes": 1460,
      "Ġappro": 1461,
      "ivers": 1462,
      "isen": 1463,
      "âĢĿ": 1464,
      "Ġquest": 1465,
      "ĠâĢľ": 1466,
      "Ġpublic": 1467,
      "itz": 1468,
      "Ġparticular": 1469,
      "Ġcompan": 1470,
      "ited": 1471,
      "hne": 1472,
      "gest": 1473,
      "Ġprocess": 1474,
      "Ġleben": 1475,
      "tens": 1476,
      "gend": 1477,
      "Ġbereich": 1478,
      "Ġinclud": 1479,
      "uÃŁ": 1480,
      "nung": 1481,
      "aut": 1482,
      "luss": 1483,
      "part": 1484,
      "Ġdat": 1485,
      "nahmen": 1486,
      "000": 1487,
      "gang": 1488,
      "Ġfinanz": 1489,
      "Ġown": 1490,
      "schlieÃŁ": 1491,
      "Ġbede": 1492,
      "ĠauÃŁer": 1493,
      "satz": 1494,
      "Ġheute": 1495,
      "Ġhuman": 1496,
      "ingen": 1497,
      "Ġmich": 1498,
      "ows": 1499,
      "Ġgovern": 1500,
      "Ġzahl": 1501,
      "Ġseine": 1502,
      "ior": 1503,
      "Ġprote": 1504,
      "Ġarea": 1505,
      "licher": 1506,
      "Ġdevelopment": 1507,
      "Ġopt": 1508,
      "ieden": 1509,
      "Ġsk": 1510,
      "Ġwant": 1511,
      "setz": 1512,
      "Ġgra": 1513,
      "isse": 1514,
      "Ġrights": 1515,
      "Ġihren": 1516,
      "Ġrespon": 1517,
      "Ġest": 1518,
      "Ġtherefore": 1519,
      "Ġfrau": 1520,
      "iness": 1521,
      "ĠmaÃŁ": 1522,
      "Ġdenn": 1523,
      "raft": 1524,
      "Ġplay": 1525,
      "zeich": 1526,
      "Ġsituation": 1527,
      "fach": 1528,
      "Ġcor": 1529,
      "Ġant": 1530,
      "Ġkle": 1531,
      "10": 1532,
      "Ġlar": 1533,
      "Ġstud": 1534,
      "wort": 1535,
      "Ġeconomic": 1536,
      "Ġsocial": 1537,
      "ultur": 1538,
      "Ġunserer": 1539,
      "ision": 1540,
      "Ġinvest": 1541,
      "Ġvoll": 1542,
      "fra": 1543,
      "hang": 1544,
      "aur": 1545,
      "Ġstrateg": 1546,
      "Ġdesign": 1547,
      "Ġdist": 1548,
      "Ġthen": 1549,
      "Ġhelp": 1550,
      "Ġvar": 1551,
      "Ġvorschla": 1552,
      "ough": 1553,
      "chten": 1554,
      "Ġdet": 1555,
      "Ġeigen": 1556,
      "Ġsign": 1557,
      "gesch": 1558,
      "Ġglo": 1559,
      "ict": 1560,
      "read": 1561,
      "Ġcomple": 1562,
      "Ġbek": 1563,
      "tem": 1564,
      "Ġcr": 1565,
      "Ġrem": 1566,
      "Ġjedoch": 1567,
      "Ġplace": 1568,
      "Ġhal": 1569,
      "ix": 1570,
      "Ġlast": 1571,
      "Ġunternehmen": 1572,
      "itt": 1573,
      "Ġadd": 1574,
      "ler": 1575,
      "Ġsur": 1576,
      "hin": 1577,
      "az": 1578,
      "Ġclear": 1579,
      "Ġhabe": 1580,
      "Ġverfug": 1581,
      "Ġ9": 1582,
      "round": 1583,
      "Ġrep": 1584,
      "Ġopp": 1585,
      "elle": 1586,
      "Ġlu": 1587,
      "Ġpolitical": 1588,
      "Ġbro": 1589,
      "Ġsondern": 1590,
      "Ġneue": 1591,
      "rechen": 1592,
      "fr": 1593,
      "Ġoper": 1594,
      "Ġhol": 1595,
      "gem": 1596,
      "Ġtechnolog": 1597,
      "mittel": 1598,
      "Ġincre": 1599,
      "Ġgemeins": 1600,
      "Ġetw": 1601,
      "Ġnutz": 1602,
      "laub": 1603,
      "Ġservices": 1604,
      "Ġkur": 1605,
      "ade": 1606,
      "Ġverein": 1607,
      "Ġwen": 1608,
      "Ġconcern": 1609,
      "rag": 1610,
      "Ġple": 1611,
      "hol": 1612,
      "Ġdisc": 1613,
      "Ġcontin": 1614,
      "Ġwithin": 1615,
      "Ġcould": 1616,
      "ently": 1617,
      "Ġpossible": 1618,
      "Ġdoes": 1619,
      "Ġsame": 1620,
      "Ġboth": 1621,
      "Ġequ": 1622,
      "Ġbusiness": 1623,
      "so": 1624,
      "Ġdown": 1625,
      "Ġinternet": 1626,
      "isp": 1627,
      "Ġfree": 1628,
      "Ġohne": 1629,
      "Ġmod": 1630,
      "Ġresult": 1631,
      "ines": 1632,
      "ving": 1633,
      "Ġwebs": 1634,
      "Ġinte": 1635,
      "Ġhist": 1636,
      "Ġ...": 1637,
      "oper": 1638,
      "ÃŁen": 1639,
      "ests": 1640,
      "line": 1641,
      "Ġmittel": 1642,
      "Ġmanag": 1643,
      "Ġvol": 1644,
      "uer": 1645,
      "ertain": 1646,
      "Ġnumber": 1647,
      "Ġconst": 1648,
      "Ġhoch": 1649,
      "Ġfil": 1650,
      "Ġoffer": 1651,
      "ants": 1652,
      "Ġje": 1653,
      "res": 1654,
      "bo": 1655,
      "Ġkolle": 1656,
      "Ġbereits": 1657,
      "Ġsozial": 1658,
      "Ġsay": 1659,
      "Ġbel": 1660,
      "ons": 1661,
      "oren": 1662,
      "ope": 1663,
      "Ġfull": 1664,
      "Ġeffect": 1665,
      "under": 1666,
      "andern": 1667,
      "gar": 1668,
      "ruct": 1669,
      "Ġenv": 1670,
      "Ġrev": 1671,
      "Ġsollte": 1672,
      "olitik": 1673,
      "Ġwichtig": 1674,
      "att": 1675,
      "Ġprin": 1676,
      "Ġport": 1677,
      "Ġagreement": 1678,
      "Ġtour": 1679,
      "Ġrestaur": 1680,
      "Ġta": 1681,
      "Ġfinan": 1682,
      "Ġavail": 1683,
      "ierte": 1684,
      "Ġmuch": 1685,
      "Ġlevel": 1686,
      "Ġagainst": 1687,
      "Ġinn": 1688,
      "Ġbesonder": 1689,
      "bl": 1690,
      "zahl": 1691,
      "iti": 1692,
      "sh": 1693,
      "Ġzwei": 1694,
      "yp": 1695,
      "Ġsw": 1696,
      "Ġletz": 1697,
      "Ġintegr": 1698,
      "Ġnor": 1699,
      "Ġeuro": 1700,
      "Ġtre": 1701,
      "Ġdiffer": 1702,
      "Ġdazu": 1703,
      "ende": 1704,
      "iver": 1705,
      "kehr": 1706,
      "Ġbef": 1707,
      "Ġandere": 1708,
      "Ġopen": 1709,
      "Ġtoday": 1710,
      "Ġsoft": 1711,
      "Ġli": 1712,
      "Ġgest": 1713,
      "br": 1714,
      "Ġ15": 1715,
      "wert": 1716,
      "Ġviele": 1717,
      "Ġset": 1718,
      "iron": 1719,
      "alen": 1720,
      "Ġcommitte": 1721,
      "Ġausge": 1722,
      "Ġused": 1723,
      "Ġerfol": 1724,
      "Ġaller": 1725,
      "bur": 1726,
      "Ġspiel": 1727,
      "kunft": 1728,
      "Ġentwicklung": 1729,
      "Ġwithout": 1730,
      "sel": 1731,
      "licht": 1732,
      "Ġcap": 1733,
      "Ġmil": 1734,
      "Ġneuen": 1735,
      "Ġback": 1736,
      "Ġstill": 1737,
      "lage": 1738,
      "grund": 1739,
      "Ġexper": 1740,
      "Ġstark": 1741,
      "Ġbud": 1742,
      "Ġcountry": 1743,
      "fahren": 1744,
      "que": 1745,
      "Ġcity": 1746,
      "Ġru": 1747,
      "utions": 1748,
      "Ġsollten": 1749,
      "Ġnah": 1750,
      "Ġaccess": 1751,
      "omet": 1752,
      "Ġadv": 1753,
      "ep": 1754,
      "kon": 1755,
      "Ġbal": 1756,
      "Ġgerman": 1757,
      "ierten": 1758,
      "Ġentsche": 1759,
      "ustom": 1760,
      "Ġpoint": 1761,
      "Ġspecial": 1762,
      "Ġentsp": 1763,
      "esent": 1764,
      "ised": 1765,
      "Ġprovid": 1766,
      "ulation": 1767,
      "fern": 1768,
      "anden": 1769,
      "Ġfut": 1770,
      "ahn": 1771,
      "ivid": 1772,
      "Ġfru": 1773,
      "Ġjahren": 1774,
      "aren": 1775,
      "Ġfrage": 1776,
      "mog": 1777,
      "ics": 1778,
      "Ġthink": 1779,
      "Ġenviron": 1780,
      "hm": 1781,
      "loy": 1782,
      "gel": 1783,
      "Ġdu": 1784,
      "Ġglobal": 1785,
      "Ġatt": 1786,
      "Ġsince": 1787,
      "Ġamer": 1788,
      "Ġcustom": 1789,
      "Ġens": 1790,
      "Ġfoll": 1791,
      "reichen": 1792,
      "Ġeas": 1793,
      "leg": 1794,
      "Ġable": 1795,
      "hing": 1796,
      "ically": 1797,
      "Ġmeas": 1798,
      "ress": 1799,
      "way": 1800,
      "Ġdoch": 1801,
      "vers": 1802,
      "urch": 1803,
      "Ġconsider": 1804,
      "par": 1805,
      "Ġbefore": 1806,
      "Ġmain": 1807,
      "Ġwissen": 1808,
      "Ġsicherheit": 1809,
      "Ġche": 1810,
      "Ġhar": 1811,
      "Ġjetzt": 1812,
      "Ġdifferent": 1813,
      "Ġ18": 1814,
      "unst": 1815,
      "Ġtreat": 1816,
      "Ġspec": 1817,
      "Ġcommittee": 1818,
      "Ġfinden": 1819,
      "Ġburger": 1820,
      "Ġsy": 1821,
      "zen": 1822,
      "ichte": 1823,
      "Ġduring": 1824,
      "its": 1825,
      "Ġamend": 1826,
      "wohl": 1827,
      "Ġverschieden": 1828,
      "rupp": 1829,
      "Ġdenen": 1830,
      "immt": 1831,
      "Ġenvironment": 1832,
      "Ġbeisp": 1833,
      "mar": 1834,
      "Ġ12": 1835,
      "ritt": 1836,
      "lagen": 1837,
      "Ġlook": 1838,
      "Ġeinige": 1839,
      "ount": 1840,
      "work": 1841,
      "Ġpat": 1842,
      "Ġmor": 1843,
      "ize": 1844,
      "entral": 1845,
      "Ġstate": 1846,
      "Ġpass": 1847,
      "Ġpal": 1848,
      "Ġwaren": 1849,
      "Ġavailable": 1850,
      "iÃŁ": 1851,
      "Ġsmall": 1852,
      "ves": 1853,
      "Ġweil": 1854,
      "ife": 1855,
      "Ġhouse": 1856,
      "Ġeinfach": 1857,
      "Ġnet": 1858,
      "ists": 1859,
      "Ġcurr": 1860,
      "rol": 1861,
      "une": 1862,
      "Ġverw": 1863,
      "Ġdien": 1864,
      "Ġziel": 1865,
      "Ġrequire": 1866,
      "Ġmeine": 1867,
      "Ġproject": 1868,
      "tellt": 1869,
      "Ġdata": 1870,
      "zeug": 1871,
      "ness": 1872,
      "Ġdaten": 1873,
      "Ġposition": 1874,
      "Ġthank": 1875,
      "Ġdah": 1876,
      "Ġrepr": 1877,
      "Ġref": 1878,
      "Ġbank": 1879,
      "Ġwahrend": 1880,
      "nahme": 1881,
      "ache": 1882,
      "Ġscha": 1883,
      "Ġbetr": 1884,
      "air": 1885,
      "Ġsoftware": 1886,
      "Ġrom": 1887,
      "unde": 1888,
      "Ġbietet": 1889,
      "Ġnun": 1890,
      "weit": 1891,
      "Ġredu": 1892,
      "Ġaff": 1893,
      "Ġruss": 1894,
      "Ġmillion": 1895,
      "cing": 1896,
      "unter": 1897,
      "Ġmachen": 1898,
      "Ġput": 1899,
      "Ġgas": 1900,
      "Ġfuture": 1901,
      "org": 1902,
      "ready": 1903,
      "ability": 1904,
      "druck": 1905,
      "Ġcal": 1906,
      "Ġallen": 1907,
      "Ġfollow": 1908,
      "Ġprev": 1909,
      "zus": 1910,
      "okrat": 1911,
      "welt": 1912,
      "ret": 1913,
      "ond": 1914,
      "Ġmot": 1915,
      "Ġir": 1916,
      "alth": 1917,
      "Ġfurther": 1918,
      "Ġcas": 1919,
      "ience": 1920,
      "akt": 1921,
      "Ġalready": 1922,
      "Ġsecon": 1923,
      "Ġerst": 1924,
      "Ġcann": 1925,
      "angen": 1926,
      "Ġliegt": 1927,
      "ins": 1928,
      "ws": 1929,
      "ahre": 1930,
      "Ġcompet": 1931,
      "Ġtro": 1932,
      "Ġdafur": 1933,
      "ude": 1934,
      "Ġkommiss": 1935,
      "Ġnam": 1936,
      "Ġmir": 1937,
      "Ġbedeut": 1938,
      "Ġlink": 1939,
      "str": 1940,
      "Ġcit": 1941,
      "Ġbelieve": 1942,
      "Ġdarauf": 1943,
      "Ġindivid": 1944,
      "eng": 1945,
      "Ġproducts": 1946,
      "Ġcourse": 1947,
      "press": 1948,
      "ward": 1949,
      "Ġris": 1950,
      "ktur": 1951,
      "Ġday": 1952,
      "Ġsecur": 1953,
      "Ġfinancial": 1954,
      "Ġplan": 1955,
      "Ġdemoc": 1956,
      "Ġrooms": 1957,
      "Ġseiner": 1958,
      "Ġmeet": 1959,
      "Ġoffent": 1960,
      "Ġtag": 1961,
      "Ġbeispiel": 1962,
      "fang": 1963,
      "Ġtoo": 1964,
      "Ġquestion": 1965,
      "ene": 1966,
      "Ġbin": 1967,
      "ationen": 1968,
      "]]": 1969,
      "Ġwirk": 1970,
      "Ġcertain": 1971,
      "Ġmodern": 1972,
      "jor": 1973,
      "Ġinde": 1974,
      "Ġexamp": 1975,
      "aften": 1976,
      "Ġeach": 1977,
      "Ġstart": 1978,
      "annt": 1979,
      "Ġprogramm": 1980,
      "Ġstra": 1981,
      "Ġmoglichkeit": 1982,
      "ismus": 1983,
      "ible": 1984,
      "achst": 1985,
      "jo": 1986,
      "Ġsecond": 1987,
      "Ġverl": 1988,
      "inen": 1989,
      "Ġwahl": 1990,
      "ante": 1991,
      "Ġstadt": 1992,
      "Ġlage": 1993,
      "schuss": 1994,
      "Ġtext": 1995,
      "Ġbeit": 1996,
      "Ġbudget": 1997,
      "Ġach": 1998,
      "Ġregard": 1999,
      "Ġiniti": 2000,
      "Ġpower": 2001,
      "Ġneg": 2002,
      "omen": 2003,
      "imin": 2004,
      "ence": 2005,
      "ilt": 2006,
      "aben": 2007,
      "Ġgeht": 2008,
      "Ġcol": 2009,
      "Ġcase": 2010,
      "pf": 2011,
      "Ġcannot": 2012,
      "Ġrahmen": 2013,
      "ting": 2014,
      "Ġimple": 2015,
      "Ġcommunity": 2016,
      "nisse": 2017,
      "Ġimpro": 2018,
      "Ġmal": 2019,
      "uth": 2020,
      "Ġcolle": 2021,
      "Ġstar": 2022,
      "aterial": 2023,
      "Ġbook": 2024,
      "dam": 2025,
      "Ġital": 2026,
      "Ġdaher": 2027,
      "ĠmaÃŁnahmen": 2028,
      "Ġfound": 2029,
      "ps": 2030,
      "Ġx": 2031,
      "Ġinformationen": 2032,
      "Ġwal": 2033,
      "tend": 2034,
      "Ġoffers": 2035,
      "Ġposit": 2036,
      "Ġforder": 2037,
      "eign": 2038,
      "Ġcitiz": 2039,
      "maÃŁ": 2040,
      "Ġ0": 2041,
      "iving": 2042,
      "Ġzuruck": 2043,
      "Ġquality": 2044,
      "ately": 2045,
      "ucht": 2046,
      "Ġeinge": 2047,
      "Ġmoglich": 2048,
      "Ġterr": 2049,
      "por": 2050,
      "Ġtun": 2051,
      "ased": 2052,
      "ichten": 2053,
      "olution": 2054,
      "ragen": 2055,
      "Ġ[[": 2056,
      "red": 2057,
      "Ġrechts": 2058,
      "Ġ&": 2059,
      "Ġkosten": 2060,
      "Ġautom": 2061,
      "Ġcommissioner": 2062,
      "Ġdank": 2063,
      "operation": 2064,
      "abei": 2065,
      "Ġapplic": 2066,
      "Ġfort": 2067,
      "ters": 2068,
      "Ġbild": 2069,
      "Ġdabei": 2070,
      "Ġjahre": 2071,
      "ature": 2072,
      "Ġherrn": 2073,
      "Ġactiv": 2074,
      "Ġsecurity": 2075,
      "ential": 2076,
      "ungsant": 2077,
      "lossen": 2078,
      "Ġchild": 2079,
      "Ġret": 2080,
      "recht": 2081,
      "Ġmajor": 2082,
      "Ġlassen": 2083,
      "isierung": 2084,
      "ified": 2085,
      "Ġgesam": 2086,
      "ulture": 2087,
      "Ġmembers": 2088,
      "imes": 2089,
      "Ġcost": 2090,
      "Ġsl": 2091,
      "ually": 2092,
      "Ġreas": 2093,
      "Ġtransport": 2094,
      "Ġconv": 2095,
      "Ġzimmer": 2096,
      "ily": 2097,
      "sk": 2098,
      "Ġkonnte": 2099,
      "bere": 2100,
      "Ġcommon": 2101,
      "Ġnie": 2102,
      "Ġear": 2103,
      "lex": 2104,
      "Ġtradition": 2105,
      "Ġdisk": 2106,
      "Ġdi": 2107,
      "rib": 2108,
      "Ġwhile": 2109,
      "Ġstre": 2110,
      "ning": 2111,
      "Ġhatte": 2112,
      "Ġ%": 2113,
      "Ġid": 2114,
      "ctions": 2115,
      "Ġnotwend": 2116,
      "Ġminut": 2117,
      "Ġstell": 2118,
      "leist": 2119,
      "Ġsaid": 2120,
      "bed": 2121,
      "Ġmult": 2122,
      "Ġcontrol": 2123,
      "Ġallem": 2124,
      "Ġenergy": 2125,
      "ator": 2126,
      "ogra": 2127,
      "Ġachie": 2128,
      "rache": 2129,
      "Ġzweit": 2130,
      "Ġauthor": 2131,
      "20": 2132,
      "Ġmeans": 2133,
      "ichter": 2134,
      "Ġwind": 2135,
      "Ġissue": 2136,
      "Ġproposal": 2137,
      "Ġexample": 2138,
      "heiten": 2139,
      "Ġkin": 2140,
      "Ġsehen": 2141,
      "the": 2142,
      "Ġ2009": 2143,
      "200": 2144,
      "ob": 2145,
      "Ġabge": 2146,
      "mb": 2147,
      "Ġpop": 2148,
      "Ġwollen": 2149,
      "ctor": 2150,
      "raum": 2151,
      "besonder": 2152,
      "Ġnext": 2153,
      "Ġschutz": 2154,
      "Ġobject": 2155,
      "ways": 2156,
      "esse": 2157,
      "Ġdaruber": 2158,
      "Ġgovernment": 2159,
      "Ġpresent": 2160,
      "Ġdra": 2161,
      "Ġwhy": 2162,
      "isl": 2163,
      "Ġpersonal": 2164,
      "besondere": 2165,
      "mail": 2166,
      "Ġhil": 2167,
      "esen": 2168,
      "Ġhealth": 2169,
      "Ġthree": 2170,
      "Ġunseren": 2171,
      "Ġlet": 2172,
      "Ġcitizens": 2173,
      "Ġgeneral": 2174,
      "iter": 2175,
      "Ġnecess": 2176,
      "ains": 2177,
      "Ġadop": 2178,
      "reg": 2179,
      "Ġbeim": 2180,
      "ird": 2181,
      "med": 2182,
      "Ġdebate": 2183,
      "Ġcontr": 2184,
      "ized": 2185,
      "Ġkommissar": 2186,
      "gress": 2187,
      "ake": 2188,
      "Ġpay": 2189,
      "Ġsal": 2190,
      "Ġdeshalb": 2191,
      "other": 2192,
      "Ġcompany": 2193,
      "punkt": 2194,
      "Ġumwelt": 2195,
      "Ġwebsite": 2196,
      "Ġprior": 2197,
      "Ġinsbesondere": 2198,
      "Ġlaw": 2199,
      "Ġgl": 2200,
      "antwort": 2201,
      "fuhrt": 2202,
      "iben": 2203,
      "Ġabs": 2204,
      "Ġbestimm": 2205,
      "Ġhistor": 2206,
      "Ġreform": 2207,
      "Ġschne": 2208,
      "orte": 2209,
      "ining": 2210,
      "Ġverbess": 2211,
      "Ġinstr": 2212,
      "stellen": 2213,
      "Ġstay": 2214,
      "Ġmatter": 2215,
      "Ġallow": 2216,
      "ĠÂ": 2217,
      "mon": 2218,
      "Ġapart": 2219,
      "ktionen": 2220,
      "amer": 2221,
      "Ġincluding": 2222,
      "upt": 2223,
      "Ġaddition": 2224,
      "ccess": 2225,
      "Ġinnov": 2226,
      "Ġstehen": 2227,
      "Ġread": 2228,
      "Ġcentre": 2229,
      "eld": 2230,
      "kten": 2231,
      "asser": 2232,
      "gangen": 2233,
      "Ġsum": 2234,
      "Ġgemeinschaft": 2235,
      "orth": 2236,
      "Ġprogramme": 2237,
      "ders": 2238,
      "Ġcall": 2239,
      "ffe": 2240,
      "Ġetwas": 2241,
      "Ġsan": 2242,
      "Ġfragen": 2243,
      "ught": 2244,
      "Ġfahr": 2245,
      "Ġdemokrat": 2246,
      "Ġemploy": 2247,
      "Ġinstitution": 2248,
      "full": 2249,
      "erence": 2250,
      "Ġbuild": 2251,
      "spro": 2252,
      "Ġproblems": 2253,
      "Ġsagen": 2254,
      "Ġtele": 2255,
      "Ġkey": 2256,
      "syste": 2257,
      "Ġca": 2258,
      "cip": 2259,
      "Ġlarge": 2260,
      "Ġzusammenarbeit": 2261,
      "Ġpolitik": 2262,
      "Ġeinzel": 2263,
      "zept": 2264,
      "Ġsing": 2265,
      "Ġlocated": 2266,
      "Ġzukunft": 2267,
      "Ġparlaments": 2268,
      "Ġverg": 2269,
      "Ġmob": 2270,
      "ged": 2271,
      "Ġsystems": 2272,
      "come": 2273,
      "Ġware": 2274,
      "Ġ30": 2275,
      "Ġunivers": 2276,
      "ets": 2277,
      "Ġmeasures": 2278,
      "Ġhaupt": 2279,
      "uchen": 2280,
      "abil": 2281,
      "Ġrespect": 2282,
      "ipp": 2283,
      "Ġgrow": 2284,
      "Ġareas": 2285,
      "jekt": 2286,
      "genommen": 2287,
      "Ġbasis": 2288,
      "Ġgive": 2289,
      "Ġlife": 2290,
      "ablish": 2291,
      "orts": 2292,
      "zw": 2293,
      "ziel": 2294,
      "Ġonline": 2295,
      "Ġrece": 2296,
      "Ġarch": 2297,
      "Ġerfolg": 2298,
      "Ġhotels": 2299,
      "Ġlegisl": 2300,
      "Ġfew": 2301,
      "Ġgiven": 2302,
      "Ġvorschlag": 2303,
      "Ġhome": 2304,
      "asst": 2305,
      "Ġdav": 2306,
      "Ġ/": 2307,
      "riend": 2308,
      "bau": 2309,
      "Ġkurz": 2310,
      "linie": 2311,
      "no": 2312,
      "Ġmaterial": 2313,
      "ï¿": 2314,
      "ï¿½": 2315,
      "Ġpa": 2316,
      "opp": 2317,
      "ef": 2318,
      "arte": 2319,
      "Ġgol": 2320,
      "Ġdiscuss": 2321,
      "ditions": 2322,
      "amm": 2323,
      "Ġlander": 2324,
      "cken": 2325,
      "Ġmanagement": 2326,
      "Ġweb": 2327,
      "eder": 2328,
      "ĠgroÃŁe": 2329,
      "Ġensure": 2330,
      "ordnung": 2331,
      "Ġsuccess": 2332,
      "ha": 2333,
      "Ġarbeits": 2334,
      "iten": 2335,
      "Ġcome": 2336,
      "Ġprovide": 2337,
      "Ġdefin": 2338,
      "Ġeinmal": 2339,
      "ruktur": 2340,
      "earch": 2341,
      "Ġdrei": 2342,
      "Ġkunden": 2343,
      "Ġask": 2344,
      "Ġinstall": 2345,
      "Ġprotection": 2346,
      "Ġsomet": 2347,
      "hip": 2348,
      "Ġtal": 2349,
      "Ġtaken": 2350,
      "Ġimp": 2351,
      "falls": 2352,
      "schaften": 2353,
      "Ġbor": 2354,
      "Ġerhalten": 2355,
      "Ġnon": 2356,
      "Ġsens": 2357,
      "Ġmarkt": 2358,
      "Ġdan": 2359,
      "Ġzust": 2360,
      "stellung": 2361,
      "Ġanal": 2362,
      "ration": 2363,
      "Ġlis": 2364,
      "Ġsite": 2365,
      "Ġbeach": 2366,
      "Ġestablish": 2367,
      "Ġversion": 2368,
      "Ġgre": 2369,
      "Ġzie": 2370,
      "Ġresearch": 2371,
      "Ġstellen": 2372,
      "spr": 2373,
      "Ġbew": 2374,
      "griff": 2375,
      "ec": 2376,
      "Ġdef": 2377,
      "Ġdid": 2378,
      "iate": 2379,
      "Ġchange": 2380,
      "Ġcooperation": 2381,
      "ott": 2382,
      "aum": 2383,
      "Ġaction": 2384,
      "Ġnaturlich": 2385,
      "Ġlegal": 2386,
      "Ġorig": 2387,
      "Ġlab": 2388,
      "ination": 2389,
      "burg": 2390,
      "immung": 2391,
      "ellschaft": 2392,
      "Ġchina": 2393,
      "ether": 2394,
      "Ġersten": 2395,
      "Ġlim": 2396,
      "Ġenjo": 2397,
      "Ġtats": 2398,
      "Ġopport": 2399,
      "Ġgeben": 2400,
      "ande": 2401,
      "Ġihrem": 2402,
      "indet": 2403,
      "Ġpract": 2404,
      "lungs": 2405,
      "Ġopportun": 2406,
      "etzen": 2407,
      "Ġprincip": 2408,
      "Ġverantwort": 2409,
      "Ġbenutz": 2410,
      "Ġmag": 2411,
      "ampf": 2412,
      "Ġuntersch": 2413,
      "itaten": 2414,
      "Ġjeder": 2415,
      "Ġimplement": 2416,
      "legt": 2417,
      "assung": 2418,
      "Ġaccord": 2419,
      "ried": 2420,
      "ultural": 2421,
      "Ġkm": 2422,
      "Ġwelche": 2423,
      "Ġrestaurant": 2424,
      "Ġtrade": 2425,
      "igten": 2426,
      "Ġbreak": 2427,
      "Ġkr": 2428,
      "agt": 2429,
      "ules": 2430,
      "pend": 2431,
      "Ġanother": 2432,
      "Ġshall": 2433,
      "Ġwrit": 2434,
      "Ġstatt": 2435,
      "Ġpark": 2436,
      "asch": 2437,
      "ĠÐ": 2438,
      "Ġunited": 2439,
      "Ġenter": 2440,
      "icher": 2441,
      "asse": 2442,
      "Ġbess": 2443,
      "gemein": 2444,
      "Ġak": 2445,
      "Ġ11": 2446,
      "Ġhope": 2447,
      "Ġkor": 2448,
      "Ġlead": 2449,
      "Ġkomp": 2450,
      "Ġbezug": 2451,
      "ica": 2452,
      "Ġ25": 2453,
      "Ġerkl": 2454,
      "setzung": 2455,
      "ross": 2456,
      "inge": 2457,
      "Ġcho": 2458,
      "ĠgroÃŁen": 2459,
      "Ġheraus": 2460,
      "Ġvisit": 2461,
      "Ġnecessary": 2462,
      "Ġconsum": 2463,
      "Ġunterstutzung": 2464,
      "vement": 2465,
      "igkeiten": 2466,
      "wur": 2467,
      "Ġrad": 2468,
      "Ġ14": 2469,
      "Ġpack": 2470,
      "Ġrele": 2471,
      "Ġteam": 2472,
      "Ġbitte": 2473,
      "Ġaccount": 2474,
      "Ġnamen": 2475,
      "Ġ|": 2476,
      "Ġfolgen": 2477,
      "po": 2478,
      "ises": 2479,
      "Ġangeb": 2480,
      "Ġinvol": 2481,
      "Ġvill": 2482,
      "Ġinner": 2483,
      "Ġcomb": 2484,
      "Ġlebens": 2485,
      "fre": 2486,
      "ches": 2487,
      "ĠmuÃŁ": 2488,
      "Ġexce": 2489,
      "Ġpartner": 2490,
      "bereich": 2491,
      "lungen": 2492,
      "Ġmer": 2493,
      "Ġbased": 2494,
      "Ġcomplete": 2495,
      "Ġusing": 2496,
      "wards": 2497,
      "Ġpost": 2498,
      "bewer": 2499,
      "Ġanderungsant": 2500,
      "gehen": 2501,
      "Ġbesteht": 2502,
      "Ġwhether": 2503,
      "Ġmacht": 2504,
      "Ġplease": 2505,
      "yn": 2506,
      "spl": 2507,
      "lau": 2508,
      "iety": 2509,
      "Ġabst": 2510,
      "alle": 2511,
      "Ġorigin": 2512,
      "ively": 2513,
      "Ġdienst": 2514,
      "uter": 2515,
      "Ġble": 2516,
      "Ġdial": 2517,
      "ared": 2518,
      "Ġalways": 2519,
      "Ġtem": 2520,
      "Ġbil": 2521,
      "Ġwish": 2522,
      "Ġ16": 2523,
      "Ġenjoy": 2524,
      "Ġgeschaft": 2525,
      "text": 2526,
      "ock": 2527,
      "fuhrung": 2528,
      "Ġshe": 2529,
      "Ġhapp": 2530,
      "Ġdirective": 2531,
      "Ġconne": 2532,
      "itar": 2533,
      "schein": 2534,
      "Ġrates": 2535,
      "Ġtyp": 2536,
      "go": 2537,
      "markt": 2538,
      "Ġextre": 2539,
      "ty": 2540,
      "Ġterms": 2541,
      "Ġseinen": 2542,
      "Ġsor": 2543,
      "ko": 2544,
      "Ġtop": 2545,
      "by": 2546,
      "uge": 2547,
      "Ġlog": 2548,
      "Ġlandern": 2549,
      "Ġsteht": 2550,
      "Ġtat": 2551,
      "Ġneeds": 2552,
      "Ġmeiner": 2553,
      "wendung": 2554,
      "Ġanges": 2555,
      "Ġwater": 2556,
      "Ġbetter": 2557,
      "Ġshow": 2558,
      "Ġreach": 2559,
      "Ġweitere": 2560,
      "atze": 2561,
      "Ġfriend": 2562,
      "Ġweg": 2563,
      "Ġvote": 2564,
      "Ġold": 2565,
      "sibility": 2566,
      "wirtschaft": 2567,
      "altung": 2568,
      "Ġspan": 2569,
      "Ġbring": 2570,
      "Ġ17": 2571,
      "Ġvielen": 2572,
      "Ġminister": 2573,
      "Ġqualitat": 2574,
      "ÃŁe": 2575,
      "ente": 2576,
      "Ġinterest": 2577,
      "Ġfiel": 2578,
      "Ġthird": 2579,
      "Ġenergie": 2580,
      "zo": 2581,
      "ek": 2582,
      "Ġtax": 2583,
      "Ġprivate": 2584,
      "weg": 2585,
      "Ġgewahr": 2586,
      "Ġdort": 2587,
      "zieh": 2588,
      "Ġentscheid": 2589,
      "Ġstandard": 2590,
      "Ġsuper": 2591,
      "Ġschluss": 2592,
      "ury": 2593,
      "Ġfrei": 2594,
      "Ġtoget": 2595,
      "Ġworking": 2596,
      "Ġgent": 2597,
      "Ġwett": 2598,
      "Ġtogether": 2599,
      "Ġnahe": 2600,
      "arten": 2601,
      "halts": 2602,
      "Ġans": 2603,
      "Ġdirekt": 2604,
      "Ġaround": 2605,
      "Ġwa": 2606,
      "ivil": 2607,
      "Ġletzten": 2608,
      "ising": 2609,
      "zess": 2610,
      "ichterst": 2611,
      "Ġchang": 2612,
      "Ġlea": 2613,
      "Ġless": 2614,
      "ller": 2615,
      "entrum": 2616,
      "Ġnear": 2617,
      "gaben": 2618,
      "Ġkind": 2619,
      "Ġalles": 2620,
      "Ġvi": 2621,
      "Ġchildren": 2622,
      "Ġprofession": 2623,
      "sequ": 2624,
      "Ġkont": 2625,
      "Ġren": 2626,
      "Ġentfern": 2627,
      "Ġkollegen": 2628,
      "Ġdon": 2629,
      "ique": 2630,
      "Ġbeh": 2631,
      "ichts": 2632,
      "Ġshort": 2633,
      "rechte": 2634,
      "Ġkunst": 2635,
      "Ġproduction": 2636,
      "Ġvertrag": 2637,
      "Ġ2008": 2638,
      "Ġlin": 2639,
      "Ġ2010": 2640,
      "wahl": 2641,
      "Ġwomen": 2642,
      "Ġdeutsch": 2643,
      "ven": 2644,
      "Ġterror": 2645,
      "Ġfacil": 2646,
      "achen": 2647,
      "blick": 2648,
      "Ġworden": 2649,
      "Ġprodukt": 2650,
      "haus": 2651,
      "iation": 2652,
      "Ġregierung": 2653,
      "app": 2654,
      "Ġende": 2655,
      "kungen": 2656,
      "ingungen": 2657,
      "less": 2658,
      "Ġstim": 2659,
      "pre": 2660,
      "iod": 2661,
      "ikan": 2662,
      "Ġcurrent": 2663,
      "enten": 2664,
      "Ġpage": 2665,
      "ierungs": 2666,
      "Ġlad": 2667,
      "elf": 2668,
      "Ġ50": 2669,
      "Ġderen": 2670,
      "undheit": 2671,
      "ca": 2672,
      "Ġpress": 2673,
      "iges": 2674,
      "eten": 2675,
      "Ġcare": 2676,
      "Ġproced": 2677,
      "Ġprom": 2678,
      "hof": 2679,
      "Ġcentral": 2680,
      "Ġkontro": 2681,
      "Ġ13": 2682,
      "Ġcrit": 2683,
      "Ġlocal": 2684,
      "Ġsubject": 2685,
      "Ġarr": 2686,
      "Ġname": 2687,
      "bild": 2688,
      "Ġverfugung": 2689,
      "Ġrapp": 2690,
      "Ġvide": 2691,
      "clus": 2692,
      "Ġconditions": 2693,
      "Ġdate": 2694,
      "Ġsele": 2695,
      "Ġbesonders": 2696,
      "Ġident": 2697,
      "Ġhos": 2698,
      "Ġverk": 2699,
      "ify": 2700,
      "Ġmrs": 2701,
      "Ġindustry": 2702,
      "rist": 2703,
      "Ġinternationalen": 2704,
      "Ġdom": 2705,
      "entlich": 2706,
      "Ġergeb": 2707,
      "Ġparticularly": 2708,
      "Ġhim": 2709,
      "Ġstaff": 2710,
      "atte": 2711,
      "Ġbecome": 2712,
      "ring": 2713,
      "Ġsoc": 2714,
      "Ġbetra": 2715,
      "Ġfood": 2716,
      "Ġbedeutung": 2717,
      "Ġliber": 2718,
      "Ġusa": 2719,
      "Ġseite": 2720,
      "Ġja": 2721,
      "Ġclos": 2722,
      "Ġkinder": 2723,
      "pla": 2724,
      "pect": 2725,
      "Ġwin": 2726,
      "Ġmind": 2727,
      "load": 2728,
      "Ġumf": 2729,
      "uments": 2730,
      "Ġbeaut": 2731,
      "Ġsowohl": 2732,
      "ption": 2733,
      "Ġexperience": 2734,
      "Ġonce": 2735,
      "jahr": 2736,
      "Ġdiffic": 2737,
      "gestellt": 2738,
      "cially": 2739,
      "Ġtot": 2740,
      "Ġsever": 2741,
      "Ġhervor": 2742,
      "Ġdifficult": 2743,
      "Ġausschuss": 2744,
      "Ġdavon": 2745,
      "Ġwettbewer": 2746,
      "rift": 2747,
      "Ġgenau": 2748,
      "Ġred": 2749,
      "met": 2750,
      "Ġrun": 2751,
      "fon": 2752,
      "ront": 2753,
      "Ġperform": 2754,
      "Ġfunktion": 2755,
      "Ġprot": 2756,
      "Ġdoc": 2757,
      "tellen": 2758,
      "gabe": 2759,
      "stehen": 2760,
      "room": 2761,
      "Ġsaf": 2762,
      "rif": 2763,
      "Ġermog": 2764,
      "Ġdialog": 2765,
      "Ġregel": 2766,
      "Ġphot": 2767,
      "Ġpartn": 2768,
      "Ġglaub": 2769,
      "Ġ24": 2770,
      "Ġrapporte": 2771,
      "Ġbrauch": 2772,
      "politik": 2773,
      "Ġklar": 2774,
      "cle": 2775,
      "tt": 2776,
      "Ġlist": 2777,
      "xim": 2778,
      "Ġexist": 2779,
      "Ġcomfort": 2780,
      "Ġruck": 2781,
      "iar": 2782,
      "Ġcontrib": 2783,
      "Ġaddress": 2784,
      "Ġregul": 2785,
      "Ġevent": 2786,
      "kes": 2787,
      "Ġ100": 2788,
      "Ġrules": 2789,
      "Ġprop": 2790,
      "Ġbeschaft": 2791,
      "Ġissues": 2792,
      "Ġstruct": 2793,
      "Ġguar": 2794,
      "Ġwhole": 2795,
      "ling": 2796,
      "Ġsingle": 2797,
      "Ġtown": 2798,
      "Ġspecific": 2799,
      "Ġbeginn": 2800,
      "tract": 2801,
      "Ġweise": 2802,
      "Ġgegenuber": 2803,
      "Ð¾": 2804,
      "spru": 2805,
      "Ġlocation": 2806,
      "ites": 2807,
      "Ġespe": 2808,
      "Ġvarious": 2809,
      "Ġtar": 2810,
      "Ġbieten": 2811,
      "Ġfehl": 2812,
      "amt": 2813,
      "Ġberichterst": 2814,
      "Ġamong": 2815,
      "schutz": 2816,
      "Ġrepresent": 2817,
      "ands": 2818,
      "Ġaktiv": 2819,
      "Ġerreichen": 2820,
      "Ġwun": 2821,
      "Ġerforder": 2822,
      "Ġreason": 2823,
      "Ġframe": 2824,
      "sc": 2825,
      "over": 2826,
      "Ġ2007": 2827,
      "Ġkommen": 2828,
      "Ġcompanies": 2829,
      "Ġthema": 2830,
      "Ġclose": 2831,
      "Ġsouth": 2832,
      "Ġocc": 2833,
      "Ġexpress": 2834,
      "ums": 2835,
      "Ġflex": 2836,
      "ural": 2837,
      "Ġdeal": 2838,
      "fast": 2839,
      "Ġmass": 2840,
      "des": 2841,
      "ots": 2842,
      "Ġtas": 2843,
      "Ġbenef": 2844,
      "rech": 2845,
      "Ġrole": 2846,
      "Ġhard": 2847,
      "Ġmom": 2848,
      "Ġguarante": 2849,
      "ody": 2850,
      "produ": 2851,
      "ckt": 2852,
      "ika": 2853,
      "ser": 2854,
      "ols": 2855,
      "ino": 2856,
      "Ġlangu": 2857,
      "vo": 2858,
      "Ġautomat": 2859,
      "Ġcheck": 2860,
      "rieden": 2861,
      "Ġfrauen": 2862,
      "Ġespecially": 2863,
      "Ġzwar": 2864,
      "Ġinnerhalb": 2865,
      "Ġprobleme": 2866,
      "vour": 2867,
      "komm": 2868,
      "ategor": 2869,
      "Ġspeak": 2870,
      "Ġfollowing": 2871,
      "ennt": 2872,
      "lemen": 2873,
      "fah": 2874,
      "ikel": 2875,
      "Ġcamp": 2876,
      "Ġaim": 2877,
      "finden": 2878,
      "mos": 2879,
      "Ġturke": 2880,
      "Ġwelcome": 2881,
      "Ġsector": 2882,
      "Ġeigenen": 2883,
      "Ġdoub": 2884,
      "ĠschlieÃŁ": 2885,
      "mark": 2886,
      "ehen": 2887,
      "ints": 2888,
      "Ġsud": 2889,
      "Ġpolitischen": 2890,
      "Ġvertre": 2891,
      "lock": 2892,
      "Ġve": 2893,
      "Ġresolution": 2894,
      "Ġunt": 2895,
      "arch": 2896,
      "ength": 2897,
      "Ġbefindet": 2898,
      "ension": 2899,
      "Ġreally": 2900,
      "isches": 2901,
      "llent": 2902,
      "Ġwes": 2903,
      "50": 2904,
      "aÃŁ": 2905,
      "wa": 2906,
      "isions": 2907,
      "ober": 2908,
      "Ġneu": 2909,
      "Ġseveral": 2910,
      "Ġdemocrat": 2911,
      "Ġcommit": 2912,
      "Ġvertra": 2913,
      "ding": 2914,
      "oney": 2915,
      "ash": 2916,
      "bet": 2917,
      "dings": 2918,
      "Ġwirklich": 2919,
      "Ġperiod": 2920,
      "wh": 2921,
      "Ġmann": 2922,
      "Ġfamily": 2923,
      "thing": 2924,
      "Ġmonth": 2925,
      "Ġoptim": 2926,
      "imate": 2927,
      "tag": 2928,
      "Ġcreate": 2929,
      "Ġwohl": 2930,
      "ritte": 2931,
      "Ġseiten": 2932,
      "Ġzusatz": 2933,
      "chan": 2934,
      "Ġorganis": 2935,
      "bt": 2936,
      "Ġlux": 2937,
      "fte": 2938,
      "racht": 2939,
      "Ġdone": 2940,
      "Ġbrit": 2941,
      "aster": 2942,
      "Ġgeh": 2943,
      "Ġallgemein": 2944,
      "riften": 2945,
      "Ġtreaty": 2946,
      "Ġforsch": 2947,
      "ived": 2948,
      "Ġaid": 2949,
      "Ġstaaten": 2950,
      "auer": 2951,
      "Ġmochten": 2952,
      "werk": 2953,
      "Ġstrong": 2954,
      "feren": 2955,
      "ift": 2956,
      "ably": 2957,
      "Ġunterstutzen": 2958,
      "ima": 2959,
      "ization": 2960,
      "Ġverschiedenen": 2961,
      "Ġclass": 2962,
      "Ġdecision": 2963,
      "Ġaccept": 2964,
      "Ġyet": 2965,
      "Ġlau": 2966,
      "vol": 2967,
      "Ġpeace": 2968,
      "Ġnever": 2969,
      "Ġnegot": 2970,
      "ety": 2971,
      "30": 2972,
      "Ġol": 2973,
      "Ġentfernt": 2974,
      "Ġresour": 2975,
      "itution": 2976,
      "reif": 2977,
      "ifiz": 2978,
      "Ġline": 2979,
      "Ġelect": 2980,
      "Ġverbrauch": 2981,
      "Ġerweit": 2982,
      "Ġprogress": 2983,
      "Ġgesundheit": 2984,
      "chs": 2985,
      "ival": 2986,
      "ktor": 2987,
      "ances": 2988,
      "Ġsea": 2989,
      "Ġsolid": 2990,
      "Ġess": 2991,
      "Ġzugang": 2992,
      "Ġexcellent": 2993,
      "iere": 2994,
      "oten": 2995,
      "Ġcommunic": 2996,
      "Ġtest": 2997,
      "Ġcontact": 2998,
      "Ġjan": 2999,
      "fuhren": 3000,
      "Ġrelations": 3001,
      "Ġort": 3002,
      "na": 3003,
      "Ġberichterstatter": 3004,
      "Ġerste": 3005,
      "Ġsport": 3006,
      "Ġapproach": 3007,
      "Ġstor": 3008,
      "Ġ:": 3009,
      "19": 3010,
      "ograph": 3011,
      "ained": 3012,
      "Ġsomething": 3013,
      "Ġpersonen": 3014,
      "iew": 3015,
      "rage": 3016,
      "icient": 3017,
      "Ġkonnten": 3018,
      "Ġrolle": 3019,
      "Ġadmin": 3020,
      "let": 3021,
      "ides": 3022,
      "Ġhig": 3023,
      "Ġgesetz": 3024,
      "Ġverst": 3025,
      "Ġfour": 3026,
      "of": 3027,
      "ichtet": 3028,
      "spolitik": 3029,
      "wart": 3030,
      "Ġfast": 3031,
      "Ġindustr": 3032,
      "ugen": 3033,
      "asing": 3034,
      "eter": 3035,
      "Ġschnell": 3036,
      "Ġindividual": 3037,
      "\".": 3038,
      "Ġdig": 3039,
      "Ġdetail": 3040,
      "Ġintro": 3041,
      "Ġfavour": 3042,
      "zip": 3043,
      "Ġextrem": 3044,
      "indung": 3045,
      "Ġtechnology": 3046,
      "Ġfuhren": 3047,
      "Ġarg": 3048,
      "Ġmaking": 3049,
      "weisen": 3050,
      "Ġdue": 3051,
      "Ġfrank": 3052,
      "Ġbehand": 3053,
      "\",": 3054,
      "enzen": 3055,
      "liegen": 3056,
      "Ġbill": 3057,
      "Ġhinter": 3058,
      "Ġisra": 3059,
      "Ġgelegen": 3060,
      "Ġpartners": 3061,
      "iner": 3062,
      "Ġdest": 3063,
      "Ġturn": 3064,
      "Ġsett": 3065,
      "Ġregional": 3066,
      "Ġverpf": 3067,
      "Ġlat": 3068,
      "fect": 3069,
      "wohn": 3070,
      "Ġausdruck": 3071,
      "Ġitself": 3072,
      "Ġkrit": 3073,
      "mat": 3074,
      "duc": 3075,
      "ordin": 3076,
      "Ġminutes": 3077,
      "Ġkre": 3078,
      "Ġlight": 3079,
      "Ġfruh": 3080,
      "Ġcontinue": 3081,
      "Ġfr": 3082,
      "Ġstandards": 3083,
      "allen": 3084,
      "neh": 3085,
      "Ġfer": 3086,
      "Ġbra": 3087,
      "Ġneben": 3088,
      "Ġladies": 3089,
      "ux": 3090,
      "Ġintrodu": 3091,
      "ifft": 3092,
      "Ġrapporteur": 3093,
      "Ġgermany": 3094,
      "Ġoften": 3095,
      "'t": 3096,
      "Ġorganisation": 3097,
      "Ġallerdings": 3098,
      "Ġschwier": 3099,
      "Ġparticip": 3100,
      "Ġuntil": 3101,
      "Ġideal": 3102,
      "ruppe": 3103,
      "ittle": 3104,
      "Ġsafety": 3105,
      "Ġuhr": 3106,
      "sprache": 3107,
      "isis": 3108,
      "tember": 3109,
      "Ġarm": 3110,
      "zeichnet": 3111,
      "cel": 3112,
      "Ġmess": 3113,
      "Ġrichtlinie": 3114,
      "ove": 3115,
      "ians": 3116,
      "ĠauÃŁerdem": 3117,
      "Ġprice": 3118,
      "Ġunterschied": 3119,
      "Ġvier": 3120,
      "schriften": 3121,
      "Ġhinaus": 3122,
      "Ġnorth": 3123,
      "Ġmoment": 3124,
      "Ġfundament": 3125,
      "rop": 3126,
      "Ġabsol": 3127,
      "wand": 3128,
      "Ġbig": 3129,
      "Ġgoing": 3130,
      "Ġpreis": 3131,
      "Ġbreakfast": 3132,
      "Ġaccording": 3133,
      "Ġleast": 3134,
      "Ġmoney": 3135,
      "Ġern": 3136,
      "Ġnutzen": 3137,
      "Ġgentlemen": 3138,
      "Ġberlin": 3139,
      "seit": 3140,
      "Ġunderstand": 3141,
      "Ġoffen": 3142,
      "Ġaway": 3143,
      "bei": 3144,
      "Ġserious": 3145,
      "Ġbuch": 3146,
      "Ġlittle": 3147,
      "Ġfeel": 3148,
      "Ġnu": 3149,
      "lands": 3150,
      "Ġopin": 3151,
      "ksam": 3152,
      "Ġamendments": 3153,
      "ification": 3154,
      "Ġframework": 3155,
      "Ġmid": 3156,
      "Ġbetre": 3157,
      "Ġrefer": 3158,
      "gleich": 3159,
      "Ġfair": 3160,
      "Ġgeschafts": 3161,
      "ined": 3162,
      "Ġgrowth": 3163,
      "Ġeduc": 3164,
      "ios": 3165,
      "iations": 3166,
      "Ġpan": 3167,
      "Ġdays": 3168,
      "Ġhaving": 3169,
      "Ġhead": 3170,
      "Ġcrisis": 3171,
      "Ġeig": 3172,
      "Ġpap": 3173,
      "fehl": 3174,
      "Ġhatten": 3175,
      "zeitig": 3176,
      "Ġgesellschaft": 3177,
      "atives": 3178,
      "Ġerg": 3179,
      "Ġ2000": 3180,
      "Ġwider": 3181,
      "Ġmuse": 3182,
      "Ġagric": 3183,
      "Ġartic": 3184,
      "Ðµ": 3185,
      "urn": 3186,
      "lass": 3187,
      "Ġflo": 3188,
      "Ġforward": 3189,
      "Ġthings": 3190,
      "row": 3191,
      "Ġgerade": 3192,
      "Ġcop": 3193,
      "Ġgaste": 3194,
      "Ġaltern": 3195,
      "Ġwest": 3196,
      "Ġwert": 3197,
      "zimmer": 3198,
      "Ġec": 3199,
      "Ġrange": 3200,
      "Ġhohe": 3201,
      "iken": 3202,
      "leistungen": 3203,
      "Ð¸": 3204,
      "Ġinstitutions": 3205,
      "Ġque": 3206,
      "Ġtowards": 3207,
      "Ġgute": 3208,
      "teilung": 3209,
      "Ġisrael": 3210,
      "Ġkomple": 3211,
      "Ġrather": 3212,
      "ars": 3213,
      "Ġnight": 3214,
      "Ġinitiative": 3215,
      "telle": 3216,
      "yl": 3217,
      "leit": 3218,
      "ierungen": 3219,
      "Ġrecog": 3220,
      "Ġpot": 3221,
      "Ġintegration": 3222,
      "Ġetc": 3223,
      "Ġfunction": 3224,
      "Ġcustomers": 3225,
      "nehmer": 3226,
      "han": 3227,
      "Ġgefahr": 3228,
      "Ġmeinung": 3229,
      "Ġbestehen": 3230,
      "Ġzusammenhang": 3231,
      "icial": 3232,
      "voll": 3233,
      "stuck": 3234,
      "Ġged": 3235,
      "though": 3236,
      "Ġberu": 3237,
      "kre": 3238,
      "Ġtry": 3239,
      "Ġrela": 3240,
      "Ġcontent": 3241,
      "Ġparty": 3242,
      "Ġkeep": 3243,
      "ype": 3244,
      "Ġwesent": 3245,
      "ichen": 3246,
      "Ġmean": 3247,
      "Ġ198": 3248,
      "Ġabsch": 3249,
      "Ġamb": 3250,
      "Ġadminist": 3251,
      "Ġkommt": 3252,
      "istic": 3253,
      "ality": 3254,
      "erstell": 3255,
      "Ð°": 3256,
      "Ġtimes": 3257,
      "Ġstation": 3258,
      "Ġpur": 3259,
      "Ġkultur": 3260,
      "Ġfisch": 3261,
      "Ġmention": 3262,
      "Ġmount": 3263,
      "Ġindem": 3264,
      "zogen": 3265,
      "Ġnov": 3266,
      "itor": 3267,
      "Ġquite": 3268,
      "Ġerho": 3269,
      "atch": 3270,
      "Ġhor": 3271,
      "hil": 3272,
      "Ġaufge": 3273,
      "Ġalthough": 3274,
      "liches": 3275,
      "weis": 3276,
      "Ġleft": 3277,
      "Ġbeiden": 3278,
      "Ġnord": 3279,
      "Ġjeden": 3280,
      "11": 3281,
      "thers": 3282,
      "Ġabgeord": 3283,
      "Ġweltweit": 3284,
      "Ġunserem": 3285,
      "Ġpresiden": 3286,
      "pru": 3287,
      "Ġnehmen": 3288,
      "Ġeasy": 3289,
      "ativen": 3290,
      "ww": 3291,
      "Ġstrategy": 3292,
      "Ġsep": 3293,
      "ĠentschlieÃŁ": 3294,
      "Ġrepub": 3295,
      "atten": 3296,
      "Ġjul": 3297,
      "Ġgef": 3298,
      "Ġbau": 3299,
      "Ġce": 3300,
      "Ġmadam": 3301,
      "bereit": 3302,
      "ost": 3303,
      "Ġwasser": 3304,
      "Ġentsprechen": 3305,
      "bon": 3306,
      "reit": 3307,
      "ison": 3308,
      "Ġled": 3309,
      "Ġcla": 3310,
      "Ġcreat": 3311,
      "Ġhilfe": 3312,
      "Ġartikel": 3313,
      "Ġincrease": 3314,
      "Ġvia": 3315,
      "stadt": 3316,
      "lik": 3317,
      "Ġverhand": 3318,
      "Ġ2006": 3319,
      "Ġlive": 3320,
      "sweise": 3321,
      "Ġactivities": 3322,
      "Ġcomputer": 3323,
      "ruppen": 3324,
      "Ġgemeinsamen": 3325,
      "erk": 3326,
      "Ġreserv": 3327,
      "baren": 3328,
      "Ġalong": 3329,
      "atis": 3330,
      "Ġagree": 3331,
      "Ġbekannt": 3332,
      "iesen": 3333,
      "plan": 3334,
      "Ġresources": 3335,
      "Ġfoc": 3336,
      "Ġholid": 3337,
      "Ġaufgrund": 3338,
      "Ġbegru": 3339,
      "Ġdaran": 3340,
      "idence": 3341,
      "Ġopportunity": 3342,
      "Ġpast": 3343,
      "Ġdownload": 3344,
      "ex": 3345,
      "Ġetwa": 3346,
      "Ġuser": 3347,
      "bru": 3348,
      "Ġzun": 3349,
      "Ġschul": 3350,
      "leicht": 3351,
      "Ġvir": 3352,
      "Ġkap": 3353,
      "program": 3354,
      "Ġbehal": 3355,
      "spe": 3356,
      "Ġjung": 3357,
      "Ġalt": 3358,
      "Ġseem": 3359,
      "Ġfreed": 3360,
      "Ġmusic": 3361,
      "Ġstellt": 3362,
      "Ġkonz": 3363,
      "Ġroad": 3364,
      "mu": 3365,
      "ieten": 3366,
      "Ġabove": 3367,
      "Ġpositive": 3368,
      "Ġweniger": 3369,
      "Ġbringen": 3370,
      "Ġprovided": 3371,
      "Ġsubs": 3372,
      "Ġeinges": 3373,
      "Ġfully": 3374,
      "Ġerfahr": 3375,
      "Ġlosung": 3376,
      "Ġdev": 3377,
      "Ġforeign": 3378,
      "onen": 3379,
      "ief": 3380,
      "Ġleist": 3381,
      "weil": 3382,
      "Ġarbeiten": 3383,
      "ker": 3384,
      "Ġsuff": 3385,
      "stra": 3386,
      "Ġbeautif": 3387,
      "Ġhinsicht": 3388,
      "verb": 3389,
      "Ġraum": 3390,
      "Ġsimp": 3391,
      "Ġbzw": 3392,
      "Ġfern": 3393,
      "dien": 3394,
      "Ġvalue": 3395,
      "Ġweek": 3396,
      "most": 3397,
      "Ġbetrie": 3398,
      "Ġsogar": 3399,
      "forderungen": 3400,
      "Ġaustr": 3401,
      "bour": 3402,
      "icken": 3403,
      "Ġpresidency": 3404,
      "frage": 3405,
      "Ġint": 3406,
      "Ġdesc": 3407,
      "Ġpunkt": 3408,
      "Ġmight": 3409,
      "Ġentscheiden": 3410,
      "Ġassoc": 3411,
      "Ġuk": 3412,
      "Ġbad": 3413,
      "annten": 3414,
      "Ġprasidentin": 3415,
      "fugen": 3416,
      "Ġbath": 3417,
      "Ġfield": 3418,
      "ton": 3419,
      "letz": 3420,
      "Ġatmos": 3421,
      "Ġprojekt": 3422,
      "Ġfinally": 3423,
      "Ġjap": 3424,
      "Ġtraining": 3425,
      "za": 3426,
      "Ġgilt": 3427,
      "uellen": 3428,
      "Ġregulation": 3429,
      "uring": 3430,
      "cher": 3431,
      "bank": 3432,
      "Ġheart": 3433,
      "Ġsignific": 3434,
      "Ġebenfalls": 3435,
      "Ġinfl": 3436,
      "Ġfreedom": 3437,
      "Ġeconomy": 3438,
      "Ġbehalf": 3439,
      "Ġmoder": 3440,
      "falt": 3441,
      "achlich": 3442,
      "Ġsolution": 3443,
      "Ġsociety": 3444,
      "ana": 3445,
      "racy": 3446,
      "Ġsubst": 3447,
      "Ġverkehr": 3448,
      "reiche": 3449,
      "Ġviol": 3450,
      "Ġinclude": 3451,
      "ommend": 3452,
      "Ġhaushalts": 3453,
      "abhang": 3454,
      "fs": 3455,
      "lichkeiten": 3456,
      "ba": 3457,
      "hod": 3458,
      "Ġentsch": 3459,
      "Ġgesagt": 3460,
      "roffen": 3461,
      "Ġbla": 3462,
      "Ġnamlich": 3463,
      "Ġcir": 3464,
      "12": 3465,
      "Ġcenter": 3466,
      "Ġsend": 3467,
      "uche": 3468,
      "Ġkons": 3469,
      "Ġairport": 3470,
      "Ġdarin": 3471,
      "ames": 3472,
      "Ġtaking": 3473,
      "Ġseptember": 3474,
      "Ġinteress": 3475,
      "Â®": 3476,
      "Ġrecommend": 3477,
      "vention": 3478,
      "Ġoption": 3479,
      "Ġothers": 3480,
      "stoff": 3481,
      "Ġderzeit": 3482,
      "Ġpun": 3483,
      "Ġnichts": 3484,
      "Ġbuilding": 3485,
      "Ġessential": 3486,
      "ban": 3487,
      "Ġprodukte": 3488,
      "einander": 3489,
      "side": 3490,
      "ception": 3491,
      "Ġapplication": 3492,
      "Ġbit": 3493,
      "Ġwindows": 3494,
      "utet": 3495,
      "fo": 3496,
      "Ġproposals": 3497,
      "ucksicht": 3498,
      "Ġeuropas": 3499,
      "berg": 3500,
      "Ġdistrib": 3501,
      "Ġsound": 3502,
      "ona": 3503,
      "Ġscho": 3504,
      "Ġmillionen": 3505,
      "Ġsolidar": 3506,
      "gew": 3507,
      "Ġyoung": 3508,
      "Ġperfect": 3509,
      "Ġchrist": 3510,
      "Ġgehen": 3511,
      "hunder": 3512,
      "Ġmiss": 3513,
      "platz": 3514,
      "leben": 3515,
      "Ġihm": 3516,
      "rank": 3517,
      "Ġenc": 3518,
      "ops": 3519,
      "ennen": 3520,
      "Ġschwer": 3521,
      "self": 3522,
      "Ġfundamental": 3523,
      "Ġfocus": 3524,
      "aps": 3525,
      "Ġstabil": 3526,
      "Ġrechte": 3527,
      "airs": 3528,
      "wendet": 3529,
      "uten": 3530,
      "bahn": 3531,
      "Ġcosts": 3532,
      "Ġihn": 3533,
      "Ġpolitische": 3534,
      "Ġmeeting": 3535,
      "Ġvielleicht": 3536,
      "Ġvergangen": 3537,
      "Ġsure": 3538,
      "Ġsimply": 3539,
      "fully": 3540,
      "ote": 3541,
      "Ġanst": 3542,
      "Ġcard": 3543,
      "Ġ21": 3544,
      "ont": 3545,
      "ured": 3546,
      "Ġ)": 3547,
      "Ġharmon": 3548,
      "Ġles": 3549,
      "Ġstad": 3550,
      "Ġann": 3551,
      "Ġberucksicht": 3552,
      "Ġimm": 3553,
      "anst": 3554,
      "Ġju": 3555,
      "Ġdarf": 3556,
      "Ġfilm": 3557,
      "Ġcover": 3558,
      "date": 3559,
      "Ġpoints": 3560,
      "Ġbesser": 3561,
      "Ġstrength": 3562,
      "Ġcharac": 3563,
      "Ġtotal": 3564,
      "Ġatmosph": 3565,
      "Ġweiterhin": 3566,
      "Ġmeisten": 3567,
      "verkehr": 3568,
      "Ġgeld": 3569,
      "Ġverbunden": 3570,
      "Ġdessen": 3571,
      "Ġjapan": 3572,
      "Ġdeliver": 3573,
      "Ġsour": 3574,
      "Ġguest": 3575,
      "Ġnatural": 3576,
      "Ġubern": 3577,
      "Ġclub": 3578,
      "Ġjahres": 3579,
      "Ġfordern": 3580,
      "Ġthus": 3581,
      "ĠgroÃŁer": 3582,
      "Ġinstrument": 3583,
      "Ġadopted": 3584,
      "ka": 3585,
      "Ġbetrifft": 3586,
      "Ġtv": 3587,
      "Ġfot": 3588,
      "lauf": 3589,
      "word": 3590,
      "Ġed": 3591,
      "Ġbeautiful": 3592,
      "Ġoppos": 3593,
      "Ġtable": 3594,
      "Ġmakes": 3595,
      "Ġamendment": 3596,
      "Ġseinem": 3597,
      "Ġkar": 3598,
      "Ġentire": 3599,
      "Ġguests": 3600,
      "Ġmut": 3601,
      "cal": 3602,
      "Ġopinion": 3603,
      "bare": 3604,
      "pekt": 3605,
      "Ġschrift": 3606,
      "Ġgemacht": 3607,
      "Ġinfr": 3608,
      "Ġfraktion": 3609,
      "Ġschlussel": 3610,
      "Ġflug": 3611,
      "Ġsil": 3612,
      "Ġlear": 3613,
      "Ġquestions": 3614,
      "Ġunterstutzt": 3615,
      "Ġdruck": 3616,
      "lei": 3617,
      "Ġwirtschafts": 3618,
      "Ġfortsch": 3619,
      "Ġprojects": 3620,
      "ĠauÃŁen": 3621,
      "Ġlegislation": 3622,
      "ferenz": 3623,
      "Ġextra": 3624,
      "Ġ40": 3625,
      "Ġtrotz": 3626,
      "Ġresults": 3627,
      "Ġlater": 3628,
      "Ġcalled": 3629,
      "Ġforderung": 3630,
      "Ġjanu": 3631,
      "Ġclean": 3632,
      "Ġnetwork": 3633,
      "Ġrelax": 3634,
      "Ġenvironmental": 3635,
      "Ġdeutschland": 3636,
      "Ġattention": 3637,
      "Ġmechan": 3638,
      "Ġbeteil": 3639,
      "Ġbi": 3640,
      "Ġinternal": 3641,
      "Ġclient": 3642,
      "Ġmethod": 3643,
      "Ġvideo": 3644,
      "Ġgroups": 3645,
      "atures": 3646,
      "Ġcivil": 3647,
      "Ġdisco": 3648,
      "Ġgere": 3649,
      "Ġprovides": 3650,
      "nete": 3651,
      "Ġschl": 3652,
      "Ġglaube": 3653,
      "Ġrisk": 3654,
      "Ġresponsibility": 3655,
      "Ġgleichzeitig": 3656,
      "ledge": 3657,
      "Ġpolicies": 3658,
      "Ġfis": 3659,
      "reicht": 3660,
      "erst": 3661,
      "ested": 3662,
      "Ġdok": 3663,
      "iers": 3664,
      "Ġlinks": 3665,
      "Ġ2005": 3666,
      "Ġnationalen": 3667,
      "alten": 3668,
      "Ġstep": 3669,
      "Ġcourt": 3670,
      "iled": 3671,
      "Ġindustrie": 3672,
      "Ġitalien": 3673,
      "Ġsolche": 3674,
      "Ġgarant": 3675,
      "Ġcapital": 3676,
      "gebung": 3677,
      "Ġschaffen": 3678,
      "Ġentwicklungs": 3679,
      "Ġemployment": 3680,
      "Ġunver": 3681,
      "system": 3682,
      "Ġclearly": 3683,
      "Ġanim": 3684,
      "prochen": 3685,
      "Ġrei": 3686,
      "ira": 3687,
      "Ġmeer": 3688,
      "dr": 3689,
      "ruction": 3690,
      "Ġoffentlichen": 3691,
      "Ġcontinu": 3692,
      "Ġreturn": 3693,
      "Ġkos": 3694,
      "Ġgreater": 3695,
      "Ġtru": 3696,
      "Ġjahrhunder": 3697,
      "Ġconcerned": 3698,
      "Ġindeed": 3699,
      "Ġevents": 3700,
      "Ġtranspar": 3701,
      "ĠweiÃŁ": 3702,
      "Ġira": 3703,
      "Ġtechnical": 3704,
      "Ġeinigen": 3705,
      "Ġassist": 3706,
      "Ġebenso": 3707,
      "Ġappropr": 3708,
      "Ġdurfen": 3709,
      "Ġeffective": 3710,
      "Ġgreen": 3711,
      "Ġhy": 3712,
      "oting": 3713,
      "Ġkommun": 3714,
      "Ġnews": 3715,
      "ada": 3716,
      "Ġsollen": 3717,
      "ape": 3718,
      "ufact": 3719,
      "Ġfacilities": 3720,
      "Ġsolutions": 3721,
      "Ġnature": 3722,
      "lig": 3723,
      "sa": 3724,
      "ented": 3725,
      "Ġhistory": 3726,
      "rach": 3727,
      "ators": 3728,
      "âĤ": 3729,
      "Ġerk": 3730,
      "Ġlange": 3731,
      "Ġpf": 3732,
      "ished": 3733,
      "Ġsitz": 3734,
      "âĤ¬": 3735,
      "Ġcode": 3736,
      "Ġshare": 3737,
      "Ġrestaurants": 3738,
      "Ġhostel": 3739,
      "Ġknown": 3740,
      "Ġquick": 3741,
      "Ġerne": 3742,
      "Ġimportance": 3743,
      "Ġbrauchen": 3744,
      "gegen": 3745,
      "Ġwohn": 3746,
      "ij": 3747,
      "Ġverbraucher": 3748,
      "Ġmic": 3749,
      "Ġeth": 3750,
      "rieben": 3751,
      "Ġmedia": 3752,
      "Ġcontext": 3753,
      "Ġremo": 3754,
      "Ġwachst": 3755,
      "Ġauswir": 3756,
      "Ġmanufact": 3757,
      "achten": 3758,
      "schlieÃŁlich": 3759,
      "Ġunabhang": 3760,
      "Ġsituated": 3761,
      "ican": 3762,
      "Ġapr": 3763,
      "Ġsty": 3764,
      "aden": 3765,
      "mitted": 3766,
      "Ġdigital": 3767,
      "Ġhandelt": 3768,
      "Ġrelig": 3769,
      "Ġkeinen": 3770,
      "ÑĤ": 3771,
      "gal": 3772,
      "itions": 3773,
      "Ġdre": 3774,
      "Ġoft": 3775,
      "Ġlot": 3776,
      "Ġdemon": 3777,
      "ript": 3778,
      "Ġstruktur": 3779,
      "staat": 3780,
      "Ġbesten": 3781,
      "Ġnote": 3782,
      "Ġcultural": 3783,
      "Ġkolleg": 3784,
      "Ġaussprache": 3785,
      "zustellen": 3786,
      "Ġchallen": 3787,
      "Ġincreasing": 3788,
      "uelle": 3789,
      "Ġlow": 3790,
      "Ġfish": 3791,
      "Ġclick": 3792,
      "Ġbezieh": 3793,
      "Ġbesuch": 3794,
      "ements": 3795,
      "Ġ2004": 3796,
      "ips": 3797,
      "rimin": 3798,
      "anze": 3799,
      "Ġprec": 3800,
      "inst": 3801,
      "istan": 3802,
      "Ġprocedure": 3803,
      "Ġtit": 3804,
      "Ġcurrently": 3805,
      "Ġschwe": 3806,
      "Ġbevor": 3807,
      "rieg": 3808,
      "Ġuberw": 3809,
      "Ġrecent": 3810,
      "Ġmaxim": 3811,
      "Ġrecord": 3812,
      "ather": 3813,
      "Ġwords": 3814,
      "Ġoriginal": 3815,
      "neten": 3816,
      "Ġwahlen": 3817,
      "hren": 3818,
      "Ġlanguage": 3819,
      "do": 3820,
      "Ġfunds": 3821,
      "Ġfront": 3822,
      "Ġsei": 3823,
      "haltung": 3824,
      "Ġprinciple": 3825,
      "esten": 3826,
      "Ñģ": 3827,
      "Ġserver": 3828,
      "techn": 3829,
      "Ġfunf": 3830,
      "uren": 3831,
      "ato": 3832,
      "Ġforce": 3833,
      "Ġdemand": 3834,
      "Ġconference": 3835,
      "Ġviews": 3836,
      "Ġside": 3837,
      "cen": 3838,
      "lag": 3839,
      "Ġsignificant": 3840,
      "eits": 3841,
      "Ġsug": 3842,
      "Ġebene": 3843,
      "unehmen": 3844,
      "Ġjun": 3845,
      "Ġwenig": 3846,
      "Ġmusik": 3847,
      "Ġluft": 3848,
      "Ġzunachst": 3849,
      "Ġrequired": 3850,
      "Ġii": 3851,
      "Ġzustand": 3852,
      "Ġober": 3853,
      "Ġeducation": 3854,
      "ziehen": 3855,
      "hotel": 3856,
      "orted": 3857,
      "reifen": 3858,
      "Ġsafe": 3859,
      "ufen": 3860,
      "Ġtravel": 3861,
      "Ġminim": 3862,
      "Ġoffice": 3863,
      "Ġelekt": 3864,
      "fil": 3865,
      "Ġord": 3866,
      "Ġobwohl": 3867,
      "Ġbenot": 3868,
      "Ġpool": 3869,
      "Ġbedeutet": 3870,
      "cent": 3871,
      "Ġsust": 3872,
      "isiert": 3873,
      "Ġbemu": 3874,
      "Ġplatz": 3875,
      "itive": 3876,
      "Ġauthorities": 3877,
      "bel": 3878,
      "hib": 3879,
      "setzen": 3880,
      "Ġprakt": 3881,
      "Ġdeutlich": 3882,
      "anger": 3883,
      "atul": 3884,
      "Ġrund": 3885,
      "Ġwichtige": 3886,
      "ule": 3887,
      "Ġgegeben": 3888,
      "Ġ23": 3889,
      "atal": 3890,
      "Ġfarm": 3891,
      "Ġprofessional": 3892,
      "Ġmitarbeit": 3893,
      "Ġstaat": 3894,
      "Ġstock": 3895,
      "Ġabstimmung": 3896,
      "Ġgemeinsame": 3897,
      "Ġmun": 3898,
      "ette": 3899,
      "Ġvorh": 3900,
      "Ġklima": 3901,
      "Ġflexib": 3902,
      "Ġprotect": 3903,
      "Ġregions": 3904,
      "Ġbevol": 3905,
      "Ġupon": 3906,
      "best": 3907,
      "Ġremain": 3908,
      "asent": 3909,
      "hlen": 3910,
      "ided": 3911,
      "''": 3912,
      "mals": 3913,
      "Ġcompetition": 3914,
      "mp": 3915,
      "Ġaspect": 3916,
      "Ġexch": 3917,
      "Ġliberal": 3918,
      "Ġdemocracy": 3919,
      "Ġmonitor": 3920,
      "Ġpages": 3921,
      "ims": 3922,
      "genda": 3923,
      "Ġnovember": 3924,
      "Ġcentury": 3925,
      "Ġdarum": 3926,
      "Ġlas": 3927,
      "Ġachieve": 3928,
      "Ġmicro": 3929,
      "val": 3930,
      "sehen": 3931,
      "Ġther": 3932,
      "Ġbeispielsweise": 3933,
      "Ġsun": 3934,
      "Ġdirectly": 3935,
      "Ġcy": 3936,
      "standen": 3937,
      "Ġvorgesch": 3938,
      "Ġwissenschaft": 3939,
      "ony": 3940,
      "Ġwegen": 3941,
      "ases": 3942,
      "verstand": 3943,
      "Ġnachsten": 3944,
      "Ġmaint": 3945,
      "Ġparties": 3946,
      "Ġresponsible": 3947,
      "Ġspace": 3948,
      "Ġnieder": 3949,
      "Ġappear": 3950,
      "jen": 3951,
      "Ġrequirements": 3952,
      "Ġportug": 3953,
      "Ġeverything": 3954,
      "Ġfindet": 3955,
      "Ġparte": 3956,
      "Ġille": 3957,
      "gesetzt": 3958,
      "oph": 3959,
      "Ġenough": 3960,
      "Ġlonger": 3961,
      "Ġmonths": 3962,
      "Ġcharacter": 3963,
      "horden": 3964,
      "angt": 3965,
      "play": 3966,
      "Ġdemokratie": 3967,
      "Ġmenschenrechte": 3968,
      "Ġdeter": 3969,
      "60": 3970,
      "ativ": 3971,
      "Ġprevent": 3972,
      "Ġfight": 3973,
      "Ġverfahren": 3974,
      "Ġumsetzung": 3975,
      "iste": 3976,
      "Ġproposed": 3977,
      "Ġrichtung": 3978,
      "gelegt": 3979,
      "ane": 3980,
      "Ð½": 3981,
      "gency": 3982,
      "ffung": 3983,
      "Ġhon": 3984,
      "Ġitem": 3985,
      "Ġwettbewerbs": 3986,
      "elves": 3987,
      "Ġdrit": 3988,
      "Ġihres": 3989,
      "Ġgewahrle": 3990,
      "stellt": 3991,
      "immen": 3992,
      "Ġinvestment": 3993,
      "Ġansicht": 3994,
      "Ġinterests": 3995,
      "Ġkraft": 3996,
      "heb": 3997,
      "Ġcustomer": 3998,
      "Ġarticle": 3999,
      "Ġapril": 4000,
      "ones": 4001,
      "Ġpet": 4002,
      "deut": 4003,
      "fluss": 4004,
      "Ġapply": 4005,
      "Ġimplementation": 4006,
      "teilen": 4007,
      "Ġtw": 4008,
      "Ġwort": 4009,
      "Ġseen": 4010,
      "Ġwerde": 4011,
      "Ġpict": 4012,
      "utzt": 4013,
      "Ġjede": 4014,
      "Ġang": 4015,
      "bil": 4016,
      "Ġdemocratic": 4017,
      "lling": 4018,
      "Ġhinzu": 4019,
      "Ġherren": 4020,
      "Ġenterpr": 4021,
      "Ġrecogn": 4022,
      "heim": 4023,
      "Ġrequest": 4024,
      "mbh": 4025,
      "Ġgarden": 4026,
      "ionen": 4027,
      "richtung": 4028,
      "frist": 4029,
      "Ġboard": 4030,
      "umente": 4031,
      "horen": 4032,
      "Ġsom": 4033,
      "Ġjedes": 4034,
      "ano": 4035,
      "ither": 4036,
      "Ġkleinen": 4037,
      "Ġparis": 4038,
      "rict": 4039,
      "ables": 4040,
      "Ġfile": 4041,
      "Ġguarantee": 4042,
      "ama": 4043,
      "Ġfinal": 4044,
      "Ġconsequ": 4045,
      "Ġsepar": 4046,
      "ĠschlieÃŁlich": 4047,
      "Ġprep": 4048,
      "lar": 4049,
      "Ġ22": 4050,
      "Ġinternationale": 4051,
      "bu": 4052,
      "organ": 4053,
      "Ġthems": 4054,
      "Ġinvolved": 4055,
      "Ġextremely": 4056,
      "Ġcorre": 4057,
      "istischen": 4058,
      "Ġweiteren": 4059,
      "Ġchanges": 4060,
      "Ġthemselves": 4061,
      "Ġdyn": 4062,
      "Ġschritt": 4063,
      "fordert": 4064,
      "Ġafric": 4065,
      "Ġverantwortung": 4066,
      "Ġerziel": 4067,
      "Ġ000": 4068,
      "Ġthough": 4069,
      "Ġnotwendig": 4070,
      "Ġbedingungen": 4071,
      "ellen": 4072,
      "Ġaud": 4073,
      "Ġjud": 4074,
      "hnen": 4075,
      "Ġclimate": 4076,
      "agement": 4077,
      "Ġhappen": 4078,
      "Ġneeded": 4079,
      "Ġaffairs": 4080,
      "Ġgmbh": 4081,
      "Ġsoon": 4082,
      "Ġanwendung": 4083,
      "rench": 4084,
      "Ġnice": 4085,
      "Ġaug": 4086,
      "Ġefforts": 4087,
      "Ġtages": 4088,
      "die": 4089,
      "Ġeinsatz": 4090,
      "alitat": 4091,
      "teile": 4092,
      "Ġcomfortable": 4093,
      "Ġiran": 4094,
      "cke": 4095,
      "Ġvoted": 4096,
      "Ġhoffe": 4097,
      "ingt": 4098,
      "Ġequip": 4099,
      "Ġhohen": 4100,
      "iting": 4101,
      "Ġsprechen": 4102,
      "Ġmode": 4103,
      "Ġliegen": 4104,
      "Ġentscheidung": 4105,
      "Ġnormal": 4106,
      "Ġrein": 4107,
      "ship": 4108,
      "linien": 4109,
      "ieg": 4110,
      "acy": 4111,
      "Ġgebiet": 4112,
      "Ġjeweil": 4113,
      "Ġ197": 4114,
      "haft": 4115,
      "Ġeither": 4116,
      "omp": 4117,
      "kerung": 4118,
      "Ġsn": 4119,
      "Ġgegenwart": 4120,
      "Ġziele": 4121,
      "Ġmarkets": 4122,
      "Ġaufmer": 4123,
      "Ġadditional": 4124,
      "Ġdocument": 4125,
      "mann": 4126,
      "Ġkop": 4127,
      "unch": 4128,
      "Ġvorschlage": 4129,
      "Ġfranz": 4130,
      "Ġsurround": 4131,
      "Ġinteresse": 4132,
      "Ġgehort": 4133,
      "Ġ2003": 4134,
      "Ġhalten": 4135,
      "Ġexpect": 4136,
      "Ġregist": 4137,
      "Ġago": 4138,
      "Ġtransl": 4139,
      "Ġholiday": 4140,
      "cies": 4141,
      "kur": 4142,
      "Ġbooking": 4143,
      "Ġcaus": 4144,
      "arf": 4145,
      "Ġsozialen": 4146,
      "Ġprices": 4147,
      "Ġconsult": 4148,
      "Ġcross": 4149,
      "Ġunters": 4150,
      "Ġgolf": 4151,
      "lander": 4152,
      "ommod": 4153,
      "Ġprevious": 4154,
      "Ġgrundlage": 4155,
      "Ġchance": 4156,
      "lied": 4157,
      "Ġten": 4158,
      "Ġdeveloped": 4159,
      "Ġakzept": 4160,
      "Ġbisher": 4161,
      "Ġphil": 4162,
      "Ġoblig": 4163,
      "Ġausgest": 4164,
      "reib": 4165,
      "Ġagenda": 4166,
      "Ġliving": 4167,
      "Ġgame": 4168,
      "Ġvollstand": 4169,
      "Ġverschiedene": 4170,
      "Ġsustain": 4171,
      "Ġverwendet": 4172,
      "Ġenthalten": 4173,
      "itionen": 4174,
      "Ġmilit": 4175,
      "Ġstatus": 4176,
      "Ġfallen": 4177,
      "Ġexpert": 4178,
      "Ġlib": 4179,
      "irm": 4180,
      "Ġanalys": 4181,
      "Ġalmost": 4182,
      "Ġcut": 4183,
      "schlag": 4184,
      "atory": 4185,
      "Ġculture": 4186,
      "Ġsen": 4187,
      "Ġaccommod": 4188,
      "vert": 4189,
      "Ġtrue": 4190,
      "Ġfeatures": 4191,
      "Ġeinzelnen": 4192,
      "Ġprem": 4193,
      "Ġnegotiations": 4194,
      "Ġfrieden": 4195,
      "Ġverander": 4196,
      "ĠheiÃŁ": 4197,
      "atic": 4198,
      "Ġlandwirtschaft": 4199,
      "Ġempfehl": 4200,
      "Ġinfrast": 4201,
      "Ġnetz": 4202,
      "Ġangelegen": 4203,
      "Ġeast": 4204,
      "Ġcases": 4205,
      "Ġdeveloping": 4206,
      "igungs": 4207,
      "Ġengine": 4208,
      "Ġcontract": 4209,
      "Ġthanks": 4210,
      "Ġerreicht": 4211,
      "Ġcommunication": 4212,
      "uell": 4213,
      "wurd": 4214,
      "Ġpropert": 4215,
      "Ġlack": 4216,
      "hes": 4217,
      "Ġgeschichte": 4218,
      "Ġbon": 4219,
      "Ġrussia": 4220,
      "Ġschein": 4221,
      "jekte": 4222,
      "Ġfamilien": 4223,
      "Ġfriendly": 4224,
      "Ġofficial": 4225,
      "-,": 4226,
      "affen": 4227,
      "Ġzentral": 4228,
      "auft": 4229,
      "Ġreihe": 4230,
      "hem": 4231,
      "Ġtype": 4232,
      "Ġindic": 4233,
      "Ġrot": 4234,
      "Ġgemeinsam": 4235,
      "Ġanw": 4236,
      "Ġcomes": 4237,
      "ired": 4238,
      "teilt": 4239,
      "Ġgewalt": 4240,
      "uses": 4241,
      "nitt": 4242,
      "Ġground": 4243,
      "tended": 4244,
      "Ġveroff": 4245,
      "ÑĢ": 4246,
      "Ġfrance": 4247,
      "va": 4248,
      "Ġjour": 4249,
      "Ġblock": 4250,
      "andid": 4251,
      "Ġmoglichkeiten": 4252,
      "Ġgran": 4253,
      "Ġunique": 4254,
      "Ġrate": 4255,
      "Ġknowledge": 4256,
      "Ġwide": 4257,
      "Ġlok": 4258,
      "vere": 4259,
      "Ġham": 4260,
      "arbeitung": 4261,
      "Ġut": 4262,
      "Ġimmed": 4263,
      "ense": 4264,
      "landern": 4265,
      "Ġeffe": 4266,
      "Ġjoint": 4267,
      "Ġleider": 4268,
      "Ġcreated": 4269,
      "Ġincluded": 4270,
      "Ġblick": 4271,
      "Ġapartments": 4272,
      "Ġexport": 4273,
      "Ġneues": 4274,
      "Ġcirc": 4275,
      "Ġfrench": 4276,
      "hend": 4277,
      "Ġbesitz": 4278,
      "Ġaufmerksam": 4279,
      "Ġconvention": 4280,
      "Ġcast": 4281,
      "ley": 4282,
      "Ġdim": 4283,
      "Ġexpl": 4284,
      "bildung": 4285,
      "Ġpotential": 4286,
      "Ġill": 4287,
      "Ġwinter": 4288,
      "Ġdivers": 4289,
      "Ġfreund": 4290,
      "Ġfit": 4291,
      "vant": 4292,
      "Ġisland": 4293,
      "Ġtransfer": 4294,
      "Ġvict": 4295,
      "Ġgenie": 4296,
      "Ġerklar": 4297,
      "Ġdebatte": 4298,
      "ommer": 4299,
      "Ġgab": 4300,
      "Ġmobil": 4301,
      "Ġactually": 4302,
      "Ġdamen": 4303,
      "ipped": 4304,
      "fert": 4305,
      "Ġbund": 4306,
      "Ġarbeitspl": 4307,
      "Ġdemonstr": 4308,
      "Ġprim": 4309,
      "Ġrechn": 4310,
      "lauben": 4311,
      "Ġimprove": 4312,
      "Ġ60": 4313,
      "Ġdepend": 4314,
      "Ġlooking": 4315,
      "ental": 4316,
      "attet": 4317,
      "Ġanfang": 4318,
      "zeigt": 4319,
      "Ġbleiben": 4320,
      "Ġwalk": 4321,
      "Ġnachhalt": 4322,
      "Ġanerk": 4323,
      "Ġsearch": 4324,
      "Ġattra": 4325,
      "Ġfal": 4326,
      "Ġfail": 4327,
      "Ġfive": 4328,
      "Ġdetails": 4329,
      "Ġfalls": 4330,
      "erseits": 4331,
      "Ġvorgeschlagen": 4332,
      "Ġzahlen": 4333,
      "Ġsicherheits": 4334,
      "Ġherz": 4335,
      "Ġintens": 4336,
      "Ġhinblick": 4337,
      "Ġimage": 4338,
      "fel": 4339,
      "gu": 4340,
      "ering": 4341,
      "Ġalter": 4342,
      "Ġgal": 4343,
      "Ġverfugt": 4344,
      "Ġmotor": 4345,
      "ĠâĤ¬": 4346,
      "Ġpak": 4347,
      "Ġkir": 4348,
      "Ġdad": 4349,
      "Ġminuten": 4350,
      "Ġmensch": 4351,
      "Ġfruhstuck": 4352,
      "Ġearly": 4353,
      "wegen": 4354,
      "Ġermoglicht": 4355,
      "oss": 4356,
      "Ġlandes": 4357,
      "13": 4358,
      "Ġklein": 4359,
      "Ġterrit": 4360,
      "Ġheld": 4361,
      "Ġthroughout": 4362,
      "Ġvereinbar": 4363,
      "Ġuberein": 4364,
      "Ġprozess": 4365,
      "utes": 4366,
      "Ġidea": 4367,
      "Ġusers": 4368,
      "arbeiten": 4369,
      "verfahren": 4370,
      "Ġsubsid": 4371,
      "Ġworkers": 4372,
      "Ġperformance": 4373,
      "fragen": 4374,
      "ĠâĢĺ": 4375,
      "dle": 4376,
      "Ġhandels": 4377,
      "Ġcru": 4378,
      "Ġemph": 4379,
      "istet": 4380,
      "Ġmand": 4381,
      "Ġerr": 4382,
      "Ġsem": 4383,
      "Ġzentrum": 4384,
      "Ġmodel": 4385,
      "Ġdut": 4386,
      "Ġexclus": 4387,
      "Ġdesigned": 4388,
      "haps": 4389,
      "Ġkil": 4390,
      "Ġzeigt": 4391,
      "Ġoutside": 4392,
      "agen": 4393,
      "Ġvan": 4394,
      "eless": 4395,
      "Ġdiskuss": 4396,
      "igte": 4397,
      "ights": 4398,
      "Ġencour": 4399,
      "Ġcertainly": 4400,
      "Ġverfol": 4401,
      "Ġinstitutionen": 4402,
      "Ġeffiz": 4403,
      "Ġchem": 4404,
      "Ġreceive": 4405,
      "sprasident": 4406,
      "Ġara": 4407,
      "soft": 4408,
      "Ġerforderlich": 4409,
      "Ġauswirkungen": 4410,
      "nehm": 4411,
      "bre": 4412,
      "Ġworks": 4413,
      "ube": 4414,
      "Ġtatsachlich": 4415,
      "Ġbinnen": 4416,
      "Ġadopt": 4417,
      "cer": 4418,
      "Ġacross": 4419,
      "Ġpublish": 4420,
      "anten": 4421,
      "lang": 4422,
      "Ġlond": 4423,
      "schluss": 4424,
      "Ġdro": 4425,
      "Ġwunder": 4426,
      "Ġergebnis": 4427,
      "emp": 4428,
      "Ġuberpru": 4429,
      "Ġanzu": 4430,
      "Ġsteuer": 4431,
      "Ġappropriate": 4432,
      "Ġanderungsantrag": 4433,
      "Ġrea": 4434,
      "Ġdienstleistungen": 4435,
      "rar": 4436,
      "Ġfuhrt": 4437,
      "Ġstreet": 4438,
      "di": 4439,
      "Ġcommer": 4440,
      "serv": 4441,
      "chter": 4442,
      "Ġenthalt": 4443,
      "Ġterm": 4444,
      "Ġrail": 4445,
      "oking": 4446,
      "Ġforschung": 4447,
      "Ġapartment": 4448,
      "Ġperhaps": 4449,
      "jenigen": 4450,
      "Ġstrategie": 4451,
      "Ġmig": 4452,
      "gesehen": 4453,
      "ying": 4454,
      "ielle": 4455,
      "Ġgesamten": 4456,
      "usst": 4457,
      "Ġauswahl": 4458,
      "wal": 4459,
      "urop": 4460,
      "Ġlag": 4461,
      "Ġtatsache": 4462,
      "Ġrefle": 4463,
      "Ġdraw": 4464,
      "Ġfamous": 4465,
      "Ġpopular": 4466,
      "Ġentde": 4467,
      "Ġinnovation": 4468,
      "Ġdynam": 4469,
      "Ġwirtschaftlichen": 4470,
      "Ġsicht": 4471,
      "Ġkontakt": 4472,
      "Ġkern": 4473,
      "hinder": 4474,
      "spiel": 4475,
      "Ġprofit": 4476,
      "Ġsorgen": 4477,
      "old": 4478,
      "Ġpatient": 4479,
      "iance": 4480,
      "icherheit": 4481,
      "Ġstaats": 4482,
      "Ġbasic": 4483,
      "Ġangesichts": 4484,
      "Ġthing": 4485,
      "achsen": 4486,
      "Ġ27": 4487,
      "Ġindustrial": 4488,
      "Ġmuseum": 4489,
      "15": 4490,
      "Ġregionen": 4491,
      "Ġpromo": 4492,
      "Ġhandel": 4493,
      "Ġcredit": 4494,
      "entwick": 4495,
      "Ġsuggest": 4496,
      "Ġnothing": 4497,
      "lies": 4498,
      "Ġmem": 4499,
      "igur": 4500,
      "li": 4501,
      "Ġsetzen": 4502,
      "ilar": 4503,
      "Ġtraditional": 4504,
      "Ġdadurch": 4505,
      "Ġinsp": 4506,
      "Ġka": 4507,
      "Ġabgeordneten": 4508,
      "Ġconcept": 4509,
      "Ġparts": 4510,
      "hung": 4511,
      "Ġimpact": 4512,
      "orf": 4513,
      "Ġanswer": 4514,
      "Ġanspru": 4515,
      "ball": 4516,
      "mitteln": 4517,
      "iellen": 4518,
      "Ġfach": 4519,
      "Ġveranst": 4520,
      "Ġamerican": 4521,
      "ester": 4522,
      "buch": 4523,
      "Ġenglish": 4524,
      "Ġentwickelt": 4525,
      "Ġdanken": 4526,
      "atisf": 4527,
      "Ġmajority": 4528,
      "Ġkolleginnen": 4529,
      "Ġrich": 4530,
      "Ġwarm": 4531,
      "ologie": 4532,
      "Ġherstell": 4533,
      "Ġsau": 4534,
      "afen": 4535,
      "Ġhours": 4536,
      "stead": 4537,
      "Ġzudem": 4538,
      "Ġsag": 4539,
      "anced": 4540,
      "Ġlondon": 4541,
      "ternal": 4542,
      "vis": 4543,
      "Ġdoing": 4544,
      "Ġexchange": 4545,
      "ump": 4546,
      "Ġangenommen": 4547,
      "Ġmu": 4548,
      "auss": 4549,
      "ampfung": 4550,
      "Ġwarum": 4551,
      "Ġdiv": 4552,
      "Ġanaly": 4553,
      "ilities": 4554,
      "Ġmorgen": 4555,
      "Ġschle": 4556,
      "Ġtool": 4557,
      "Ġspielen": 4558,
      "mor": 4559,
      "Ġsex": 4560,
      "Ġexec": 4561,
      "Ġburg": 4562,
      "Ġcomplex": 4563,
      "Ġschool": 4564,
      "vent": 4565,
      "Ġconcerning": 4566,
      "Ġvern": 4567,
      "ging": 4568,
      "Ġjedem": 4569,
      "Ġpu": 4570,
      "Ġstrengthen": 4571,
      "Ġmitglieder": 4572,
      "Ġdenke": 4573,
      "Ġban": 4574,
      "aking": 4575,
      "Ġbroad": 4576,
      "Ġubr": 4577,
      "Ġgrundsatz": 4578,
      "Ġgesp": 4579,
      "Ġbuilt": 4580,
      "Ġtakes": 4581,
      "oun": 4582,
      "Ġface": 4583,
      "barkeit": 4584,
      "Ġq": 4585,
      "Ġdesp": 4586,
      "Ġenable": 4587,
      "Ġemphas": 4588,
      "ceed": 4589,
      "Ġhalf": 4590,
      "Ġgast": 4591,
      "rechts": 4592,
      "fahigkeit": 4593,
      "Ġaugust": 4594,
      "isieren": 4595,
      "Ġcoll": 4596,
      "Ġconstitution": 4597,
      "Ġdouble": 4598,
      "Ġkomfort": 4599,
      "iele": 4600,
      "fassung": 4601,
      "Ġcolleag": 4602,
      "Ġproper": 4603,
      "Ġtex": 4604,
      "rachen": 4605,
      "Ġdiscover": 4606,
      "Ġanderungsantrage": 4607,
      "Ġterra": 4608,
      "Ġantwort": 4609,
      "Ġresol": 4610,
      "Ġkleine": 4611,
      "arm": 4612,
      "Ġmovement": 4613,
      "Ġseries": 4614,
      "reiben": 4615,
      "Ġwall": 4616,
      "Ġenlar": 4617,
      "clear": 4618,
      "Ġzweif": 4619,
      "Ġprogrammes": 4620,
      "Ġvereinigten": 4621,
      "Ġtreffen": 4622,
      "Ġbereichen": 4623,
      "Ġsand": 4624,
      "Ġverhandlungen": 4625,
      "Ġconnection": 4626,
      "Ġregarding": 4627,
      "bus": 4628,
      "Ġmang": 4629,
      "grenz": 4630,
      "face": 4631,
      "Ġbefinden": 4632,
      "iews": 4633,
      "ou": 4634,
      "ery": 4635,
      "Ġbul": 4636,
      "Ġbody": 4637,
      "Ġextens": 4638,
      "Ġdokument": 4639,
      "Ġtarget": 4640,
      "Ġinstead": 4641,
      "Ġproz": 4642,
      "zer": 4643,
      "Ġsinn": 4644,
      "Ġjobs": 4645,
      "Ġmilitary": 4646,
      "Ġ*": 4647,
      "Ġmilitar": 4648,
      "oid": 4649,
      "Ġexisting": 4650,
      "abel": 4651,
      "Ġurspr": 4652,
      "aging": 4653,
      "Ġsyn": 4654,
      "Ġ2002": 4655,
      "Ġumfassen": 4656,
      "aufen": 4657,
      "Ġabsolute": 4658,
      "Ġ80": 4659,
      "Ġstop": 4660,
      "Ġjob": 4661,
      "Ġhoher": 4662,
      "Ġgerne": 4663,
      "ico": 4664,
      "Ġtook": 4665,
      "Ġhinsichtlich": 4666,
      "Ġspir": 4667,
      "Ġganze": 4668,
      "Ġsqu": 4669,
      "Ġfranzos": 4670,
      "Ġerzeug": 4671,
      "Ġkam": 4672,
      "ja": 4673,
      "Ġassess": 4674,
      "Ġfeder": 4675,
      "Ġsix": 4676,
      "Ġspezie": 4677,
      "Ġamount": 4678,
      "afte": 4679,
      "Ġconcerns": 4680,
      "asc": 4681,
      "Ġbeziehungen": 4682,
      "Ġleading": 4683,
      "Ġequipment": 4684,
      "Ġreich": 4685,
      "ĠheiÃŁt": 4686,
      "Ġemer": 4687,
      "Ġmehrere": 4688,
      "Ġwriting": 4689,
      "Ġpractice": 4690,
      "ille": 4691,
      "dom": 4692,
      "Ġbevolkerung": 4693,
      "Ġturkey": 4694,
      "sitz": 4695,
      "Ġscient": 4696,
      "Ġagreements": 4697,
      "Ġspa": 4698,
      "Ġdecisions": 4699,
      "Ġanb": 4700,
      "Ġconflic": 4701,
      "pack": 4702,
      "una": 4703,
      "da": 4704,
      "ausch": 4705,
      "Ġcompletely": 4706,
      "Ġhelfen": 4707,
      "Ġobjective": 4708,
      "Ġabkommen": 4709,
      "Ġkampf": 4710,
      "Ġunseres": 4711,
      "Ġpen": 4712,
      "teid": 4713,
      "Ġprivat": 4714,
      "Ġamerica": 4715,
      "Ġtor": 4716,
      "Ġsimple": 4717,
      "erei": 4718,
      "Ġsimilar": 4719,
      "Ġpackage": 4720,
      "uted": 4721,
      "Ġemail": 4722,
      "Ġamerikan": 4723,
      "anzen": 4724,
      "rane": 4725,
      "Ġ2001": 4726,
      "ini": 4727,
      "Ġdep": 4728,
      "halte": 4729,
      "aring": 4730,
      "ences": 4731,
      "Ġganzen": 4732,
      "Ġking": 4733,
      "Ġinteressen": 4734,
      "Ġpc": 4735,
      "Ġangem": 4736,
      "formen": 4737,
      "Ġthemen": 4738,
      "Ġpurch": 4739,
      "Ġmentioned": 4740,
      "Ġflugh": 4741,
      "Ġlay": 4742,
      "Ġanti": 4743,
      "Ġpopulation": 4744,
      "Ġster": 4745,
      "alu": 4746,
      "Ġwestern": 4747,
      "Ġregister": 4748,
      "Ġbelow": 4749,
      "Ġmeinen": 4750,
      "Ġschla": 4751,
      "Ġzug": 4752,
      "Ġreasons": 4753,
      "Ġeffekt": 4754,
      "fortun": 4755,
      "Ġrelated": 4756,
      "Ġok": 4757,
      "term": 4758,
      "Ġsomit": 4759,
      "Ġeveryone": 4760,
      "artet": 4761,
      "Ġincludes": 4762,
      "Ġwerk": 4763,
      "Ġchoice": 4764,
      "Ġbeitrag": 4765,
      "bor": 4766,
      "see": 4767,
      "Ġapplications": 4768,
      "Ġruh": 4769,
      "Ġaufgabe": 4770,
      "uste": 4771,
      "richtungen": 4772,
      "ological": 4773,
      "Ġtick": 4774,
      "Ġstrand": 4775,
      "ires": 4776,
      "Ġaware": 4777,
      "cks": 4778,
      "Ġlearn": 4779,
      "Ġtim": 4780,
      "Ð¾Ð": 4781,
      "Ġhaushalt": 4782,
      "zif": 4783,
      "Ġfiles": 4784,
      "licherweise": 4785,
      "Ġwonder": 4786,
      "Ġerinn": 4787,
      "Ġliste": 4788,
      "ara": 4789,
      "Ġrule": 4790,
      "inner": 4791,
      "more": 4792,
      "Ġverm": 4793,
      "Ġplann": 4794,
      "Ġturkei": 4795,
      "Ġtrain": 4796,
      "pted": 4797,
      "Ġgelten": 4798,
      "Ġimpos": 4799,
      "Ġunfortun": 4800,
      "Ġkontrolle": 4801,
      "Ġmobile": 4802,
      "Ġmeines": 4803,
      "Ġverpflicht": 4804,
      "Ġself": 4805,
      "arbeitet": 4806,
      "Ġba": 4807,
      "frei": 4808,
      "Ġinstallation": 4809,
      "Ġactive": 4810,
      "Ġgestellt": 4811,
      "Ġmove": 4812,
      "Ġage": 4813,
      "Ġep": 4814,
      "Ġbarcel": 4815,
      "Ġpoor": 4816,
      "Ġattack": 4817,
      "Ġkonst": 4818,
      "Ġrecently": 4819,
      "Ġconsumer": 4820,
      "Ġwichtigen": 4821,
      "bedingungen": 4822,
      "amera": 4823,
      "Ġaugen": 4824,
      "Ġfebru": 4825,
      "geschlossen": 4826,
      "Ġdeleg": 4827,
      "Ġukra": 4828,
      "Ġernst": 4829,
      "Ġchoose": 4830,
      "Ġvolks": 4831,
      "Ġabend": 4832,
      "Ġagricultural": 4833,
      "Ġverbindung": 4834,
      "Ġadvant": 4835,
      "Ġerschein": 4836,
      "Ġindepend": 4837,
      "Ġallows": 4838,
      "Ġenor": 4839,
      "Ġunge": 4840,
      "clud": 4841,
      "Ġost": 4842,
      "ork": 4843,
      "Ġumfang": 4844,
      "Ġexternal": 4845,
      "Ġphys": 4846,
      "Ġbleibt": 4847,
      "sv": 4848,
      "Ġjustice": 4849,
      "gl": 4850,
      "Ġword": 4851,
      "Ġconclus": 4852,
      "Ġerweiterung": 4853,
      "Ġvergleich": 4854,
      "Ġgrand": 4855,
      "Ġvalues": 4856,
      "Ġinformations": 4857,
      "Ġobjectives": 4858,
      "Ġspeed": 4859,
      "Ġski": 4860,
      "Ġreports": 4861,
      "fallen": 4862,
      "nissen": 4863,
      "Ġcongr": 4864,
      "fonds": 4865,
      "Ġspend": 4866,
      "quis": 4867,
      "Ġbecom": 4868,
      "Ġspezial": 4869,
      "Ġacht": 4870,
      "Ġalternative": 4871,
      "Ġelement": 4872,
      "Ġpain": 4873,
      "Ġbestat": 4874,
      "Ġestablished": 4875,
      "Ġfehler": 4876,
      "Ġtermin": 4877,
      "ĠfuÃŁ": 4878,
      "Ġrichtig": 4879,
      "Ġcapac": 4880,
      "ume": 4881,
      "yr": 4882,
      "Ġps": 4883,
      "Ġgestimmt": 4884,
      "ology": 4885,
      "utt": 4886,
      "lant": 4887,
      "Ġhost": 4888,
      "Ġ$": 4889,
      "Ġsatisf": 4890,
      "Ġgoods": 4891,
      "forderung": 4892,
      "gene": 4893,
      "Ġpassen": 4894,
      "Ġausschusses": 4895,
      "Ġbekommen": 4896,
      "ias": 4897,
      "Ġkeyword": 4898,
      "zunehmen": 4899,
      "Ġkla": 4900,
      "indust": 4901,
      "worten": 4902,
      "Ġ1999": 4903,
      "Ġ-,": 4904,
      ".,": 4905,
      "aupt": 4906,
      "Ġdez": 4907,
      "Ġblack": 4908,
      "zeugen": 4909,
      "Ġreceived": 4910,
      "Ġfire": 4911,
      "Ġspater": 4912,
      "Ġnutzung": 4913,
      "Ġverteid": 4914,
      "Ġdraft": 4915,
      "Ġpleas": 4916,
      "Ġverordnung": 4917,
      "ush": 4918,
      "Ġandern": 4919,
      "Ġliefer": 4920,
      "Ġfle": 4921,
      "ĠentschlieÃŁung": 4922,
      "kraft": 4923,
      "fahrt": 4924,
      "Ġahn": 4925,
      "Ġmiddle": 4926,
      "Ġmail": 4927,
      "Ġaussch": 4928,
      "minister": 4929,
      "Ġstability": 4930,
      "Ġerhalt": 4931,
      "abon": 4932,
      "Ġhighl": 4933,
      "annte": 4934,
      "gro": 4935,
      "Ġoil": 4936,
      "auen": 4937,
      "iated": 4938,
      "Ġslow": 4939,
      "Ġfisher": 4940,
      "Ġspac": 4941,
      "Ġhauf": 4942,
      "ipl": 4943,
      "asion": 4944,
      "onnen": 4945,
      "ovo": 4946,
      "Ġexhib": 4947,
      "Ġlic": 4948,
      "Ġsant": 4949,
      "Ġgree": 4950,
      "Ġlisbon": 4951,
      "mitglie": 4952,
      "uropa": 4953,
      "ĠgenieÃŁen": 4954,
      "Ġverd": 4955,
      "Ġsymb": 4956,
      "Ġmitarbeiter": 4957,
      "Ġwunsch": 4958,
      "Ġverwenden": 4959,
      "Ġbemer": 4960,
      "Ġstimme": 4961,
      "Ġbehorden": 4962,
      "Ġgot": 4963,
      "Ġexc": 4964,
      "Ġaufent": 4965,
      "iens": 4966,
      "lad": 4967,
      "Ġcro": 4968,
      "ikation": 4969,
      "Ġschaden": 4970,
      "Ġtreatment": 4971,
      "Ġveh": 4972,
      "Ġwochen": 4973,
      "Ġcontain": 4974,
      "ason": 4975,
      "Ġberuf": 4976,
      "Ġbenefit": 4977,
      "Ġroman": 4978,
      "Ġstelle": 4979,
      "Ġfig": 4980,
      "Ġmaterials": 4981,
      "Ġwichtigsten": 4982,
      "erve": 4983,
      "Ġquickly": 4984,
      "kung": 4985,
      "Ġven": 4986,
      "Ġliss": 4987,
      "Ġeinzig": 4988,
      "Ġuberzeug": 4989,
      "Ġurlaub": 4990,
      "ennung": 4991,
      "Ġreise": 4992,
      "pression": 4993,
      "trie": 4994,
      "Ġexperien": 4995,
      "Ġberg": 4996,
      "Ġdurchge": 4997,
      "Ġstress": 4998,
      "Ġleicht": 4999,
      "Ġeinheit": 5000,
      "Ġdepart": 5001,
      "Ġbruss": 5002,
      "Ġcorpor": 5003,
      "amb": 5004,
      "issions": 5005,
      "Ġfoot": 5006,
      "Ġleit": 5007,
      "gement": 5008,
      "hungen": 5009,
      "Ġmountain": 5010,
      "Ġgovernments": 5011,
      "gesamt": 5012,
      "Ġkonig": 5013,
      "leb": 5014,
      "Ġ+": 5015,
      "Ġdespite": 5016,
      "Ġcorrect": 5017,
      "Ġedit": 5018,
      "Ġvirt": 5019,
      "Ġstage": 5020,
      "Ġfloor": 5021,
      "Ġmitt": 5022,
      "Ġap": 5023,
      "gener": 5024,
      "ausschuss": 5025,
      "Ġkrise": 5026,
      "Ġwobei": 5027,
      "Ġtraff": 5028,
      "Ġfrankreich": 5029,
      "Ġeg": 5030,
      "Ġdialogue": 5031,
      "Ġdopp": 5032,
      "Ġturk": 5033,
      "Ġsense": 5034,
      "Ġbran": 5035,
      "Ġeinger": 5036,
      "programm": 5037,
      "Ġcongratul": 5038,
      "wide": 5039,
      "sto": 5040,
      "Ġverbesserung": 5041,
      "Ġoster": 5042,
      "Ġfurn": 5043,
      "reen": 5044,
      "stellungen": 5045,
      "Ġreview": 5046,
      "daten": 5047,
      "len": 5048,
      "Ġchin": 5049,
      "Ġgruppe": 5050,
      "ground": 5051,
      "Ġcontains": 5052,
      "vorschriften": 5053,
      "wander": 5054,
      "lla": 5055,
      "Ġzeigen": 5056,
      "Ġermoglichen": 5057,
      "Ġguten": 5058,
      "Ġhuge": 5059,
      "Ġkonzentr": 5060,
      "Ġlissabon": 5061,
      "just": 5062,
      "Ġsofort": 5063,
      "besch": 5064,
      "Ġdecl": 5065,
      "Ġlasst": 5066,
      "Ġgrie": 5067,
      "Ġbeginning": 5068,
      "Ġhighly": 5069,
      "Ġsummer": 5070,
      "aged": 5071,
      "Ġbetroffen": 5072,
      "Ġwachstum": 5073,
      "Ġuniversity": 5074,
      "Ġconsumers": 5075,
      "Ġcarry": 5076,
      "ams": 5077,
      "Ġzweiten": 5078,
      "sm": 5079,
      "phone": 5080,
      "pected": 5081,
      "Ġtell": 5082,
      "Ġverz": 5083,
      "Ġlevels": 5084,
      "ctors": 5085,
      "itect": 5086,
      "Ġvorbereit": 5087,
      "iko": 5088,
      "urf": 5089,
      "Ġachieved": 5090,
      "Ġseems": 5091,
      "Ġlabour": 5092,
      "griffen": 5093,
      "ÃŁt": 5094,
      "otion": 5095,
      "Ġmis": 5096,
      "Ġinsgesamt": 5097,
      "Ġinstruments": 5098,
      "Ġlimited": 5099,
      "Ġnuclear": 5100,
      "Ġwhite": 5101,
      "Ġplayer": 5102,
      "Ġgene": 5103,
      "rechend": 5104,
      "40": 5105,
      "18": 5106,
      "Ġvilla": 5107,
      "Ġult": 5108,
      "Ġbinnenmarkt": 5109,
      "Ġflughafen": 5110,
      "schlieÃŁend": 5111,
      "iveness": 5112,
      "Ġneuer": 5113,
      "Ġadded": 5114,
      "Ġvollig": 5115,
      "absch": 5116,
      "Ġefficient": 5117,
      "Ġmaintain": 5118,
      "Ġformer": 5119,
      "Ġadministrat": 5120,
      "Ġdisplay": 5121,
      "Ġformul": 5122,
      "Ġrepublic": 5123,
      "Ġequipped": 5124,
      "17": 5125,
      "Ġkulture": 5126,
      "Ġbarcelona": 5127,
      "mehr": 5128,
      "Ġschaffung": 5129,
      "Ġshows": 5130,
      "fun": 5131,
      "opping": 5132,
      "Ġsuccessful": 5133,
      "Ġregular": 5134,
      "Ġbathroom": 5135,
      "Ġgelegenheit": 5136,
      "Ġubrigen": 5137,
      "xis": 5138,
      "istische": 5139,
      "Ġvorhanden": 5140,
      "kan": 5141,
      "Ġhigher": 5142,
      "Ġincreased": 5143,
      "Ġhom": 5144,
      "Ġallgemeinen": 5145,
      "Ġhung": 5146,
      "bin": 5147,
      "Ġfalle": 5148,
      "Ġnachdem": 5149,
      "Ġsupply": 5150,
      "Ġmac": 5151,
      "Ġjune": 5152,
      "Ġsource": 5153,
      "rad": 5154,
      "Ġinsel": 5155,
      "hnt": 5156,
      "Ġsent": 5157,
      "sterdam": 5158,
      "iment": 5159,
      "Ġgebau": 5160,
      "Ġfert": 5161,
      "ernen": 5162,
      "Ġattem": 5163,
      "Ġoperation": 5164,
      "Ġmanner": 5165,
      "vious": 5166,
      "Ġnations": 5167,
      "Ġelectron": 5168,
      "Ġimmig": 5169,
      "kennen": 5170,
      "Ġkonkre": 5171,
      "Ġmehrheit": 5172,
      "Ġverwendung": 5173,
      "Ġpresented": 5174,
      "Ġsummit": 5175,
      "Ġmai": 5176,
      "Ġjugend": 5177,
      "Ġmediter": 5178,
      "Ġsoziale": 5179,
      "Ġ28": 5180,
      "Ġzahlreiche": 5181,
      "Ġheut": 5182,
      "Ġgrundlegen": 5183,
      "Ġcu": 5184,
      "Ġgenu": 5185,
      "Ġnumer": 5186,
      "Ġ!": 5187,
      "Ġschiff": 5188,
      "Ġverbessern": 5189,
      "Ġga": 5190,
      "Ġangebot": 5191,
      "Ġcomprom": 5192,
      "ga": 5193,
      "Ġdeep": 5194,
      "Ġreviews": 5195,
      "Ġtragen": 5196,
      "Ġbalance": 5197,
      "Ġeigent": 5198,
      "Ġcommercial": 5199,
      "Ġinnovative": 5200,
      "Ġergebnisse": 5201,
      "wertungen": 5202,
      "Ġmont": 5203,
      "oo": 5204,
      "itable": 5205,
      "Ġbeschaftigung": 5206,
      "Ġamsterdam": 5207,
      "Ġbelg": 5208,
      "icien": 5209,
      "Ġprob": 5210,
      "Ġgeschlossen": 5211,
      "Ġkontroll": 5212,
      "Ġzentr": 5213,
      "Ġvehic": 5214,
      "Ġprinciples": 5215,
      "Ġklicken": 5216,
      "Ġproperty": 5217,
      "Ġtage": 5218,
      "cker": 5219,
      "Ġvolk": 5220,
      "Ġeigene": 5221,
      "Ġdebian": 5222,
      "Ġarchitect": 5223,
      "Ġnotwendigkeit": 5224,
      "Ġsus": 5225,
      "Ġdennoch": 5226,
      "ĠgemaÃŁ": 5227,
      "Ġkan": 5228,
      "Ġopportunities": 5229,
      "ranken": 5230,
      "Ġursprung": 5231,
      "Ġerach": 5232,
      "Ġallein": 5233,
      "folge": 5234,
      "Ġanzahl": 5235,
      "Ġwhose": 5236,
      "Ġcarried": 5237,
      "ender": 5238,
      "Ġneigh": 5239,
      "Ġferien": 5240,
      "Ġverfugen": 5241,
      "Ġanno": 5242,
      "Ġ500": 5243,
      "Ġaccommodation": 5244,
      "Ġdeath": 5245,
      "osen": 5246,
      "Ġasked": 5247,
      "Ġvillage": 5248,
      "Ġgames": 5249,
      "Ġdring": 5250,
      "Ġkit": 5251,
      "pose": 5252,
      "Ġgesamte": 5253,
      "Ġdirection": 5254,
      "stre": 5255,
      "Ġunfortunately": 5256,
      "ques": 5257,
      "Ġobvious": 5258,
      "Ġobt": 5259,
      "Ġstyle": 5260,
      "ya": 5261,
      "pers": 5262,
      "ills": 5263,
      "usion": 5264,
      "umm": 5265,
      "Ġavoid": 5266,
      "Ġersch": 5267,
      "Ġagreed": 5268,
      "iable": 5269,
      "Ġbenutzer": 5270,
      "Ġwoche": 5271,
      "Ġsubmitted": 5272,
      "denken": 5273,
      "wise": 5274,
      "atell": 5275,
      "Ġleader": 5276,
      "Ġlik": 5277,
      "Ġjav": 5278,
      "Ġvorauss": 5279,
      "Ġkunft": 5280,
      "imming": 5281,
      "Ġzeitpunkt": 5282,
      "Ġselbstverstand": 5283,
      "Ġbehind": 5284,
      "Ġprasent": 5285,
      "Ġeffects": 5286,
      "maÃŁig": 5287,
      "Ġsustainable": 5288,
      "Ġhostels": 5289,
      "Ġangemessen": 5290,
      "fordern": 5291,
      "ai": 5292,
      "Ġoct": 5293,
      "Ġsites": 5294,
      "Ġcondition": 5295,
      "Ġgrunde": 5296,
      "Ġcommitment": 5297,
      "Ġinfluen": 5298,
      "Ġtools": 5299,
      "Ġcame": 5300,
      "Ġfix": 5301,
      "alter": 5302,
      "ffet": 5303,
      "Ġmatters": 5304,
      "aschinen": 5305,
      "Ġdeta": 5306,
      "Ġmeinem": 5307,
      "Ġevalu": 5308,
      "Ġchurch": 5309,
      "industrie": 5310,
      "Ġround": 5311,
      "Ġmarch": 5312,
      "Ġstimmen": 5313,
      "Ġerheb": 5314,
      "Ġstarken": 5315,
      "Ġdiskut": 5316,
      "Ġrussland": 5317,
      "Ġmarketing": 5318,
      "unternehmen": 5319,
      "Ġeleg": 5320,
      "Ġproduktion": 5321,
      "Ġkennt": 5322,
      "Ġselect": 5323,
      "Ġaward": 5324,
      "Ġvielfalt": 5325,
      "zufuhren": 5326,
      "ki": 5327,
      "Ġlosungen": 5328,
      "Ġsection": 5329,
      "Ġcondu": 5330,
      "Ġdeutschen": 5331,
      "inter": 5332,
      "Ġkrieg": 5333,
      "lam": 5334,
      "Ġsetting": 5335,
      "gas": 5336,
      "will": 5337,
      "Ġgleichen": 5338,
      "Ġyork": 5339,
      "Ġhall": 5340,
      "Ġkauf": 5341,
      "Ġrap": 5342,
      "lement": 5343,
      "Ġmenu": 5344,
      "Ġguid": 5345,
      "Ġ196": 5346,
      "dienst": 5347,
      "Ġaspects": 5348,
      "Ġanderungen": 5349,
      "Ġbrand": 5350,
      "Ġtemper": 5351,
      "itation": 5352,
      "atast": 5353,
      "Ġgehoren": 5354,
      "Ġverkehrs": 5355,
      "kn": 5356,
      "inger": 5357,
      "Ġcreation": 5358,
      "Ġune": 5359,
      "Ġcoast": 5360,
      "sprechen": 5361,
      "Ġtrend": 5362,
      "Ġjuni": 5363,
      "frieden": 5364,
      "ml": 5365,
      "Ġcoming": 5366,
      "Ġproviding": 5367,
      "Ġpossibility": 5368,
      "Ġgold": 5369,
      "fung": 5370,
      "Ġpromote": 5371,
      "Ġsize": 5372,
      "Ġpie": 5373,
      "Ġshown": 5374,
      "maÃŁnahmen": 5375,
      "Ġlatest": 5376,
      "Ġos": 5377,
      "Ġbox": 5378,
      "Ġgerecht": 5379,
      "Ġalten": 5380,
      "Ġprepar": 5381,
      "Ġhoff": 5382,
      "Ġinnen": 5383,
      "Ġresponse": 5384,
      "Ġresort": 5385,
      "Ġasyl": 5386,
      "Ġconsidered": 5387,
      "Ġverstehen": 5388,
      "sprogram": 5389,
      "Ġrenov": 5390,
      "Ġeindeut": 5391,
      "klus": 5392,
      "Ġosterreich": 5393,
      "Ġradio": 5394,
      "iglich": 5395,
      "lassen": 5396,
      "Ġausfuhr": 5397,
      "Ġkomprom": 5398,
      "Ġanwend": 5399,
      "where": 5400,
      "atzen": 5401,
      "ĠauÃŁerst": 5402,
      "Ġdistribution": 5403,
      "astic": 5404,
      "Ġspirit": 5405,
      "Ġlediglich": 5406,
      "ourcen": 5407,
      "Ġwid": 5408,
      "star": 5409,
      "ikt": 5410,
      "zy": 5411,
      "Ġeasily": 5412,
      "hilfe": 5413,
      "ees": 5414,
      "Ġkonferenz": 5415,
      "Ġblo": 5416,
      "Ġdv": 5417,
      "Ġgren": 5418,
      "owers": 5419,
      "Ġentwickeln": 5420,
      "Ġindependent": 5421,
      "Ġrede": 5422,
      "Ġzweite": 5423,
      "otes": 5424,
      "akter": 5425,
      "ney": 5426,
      "Ġdoll": 5427,
      "Ġdimension": 5428,
      "Ġherzen": 5429,
      "Ġlegit": 5430,
      "Ġerfahrung": 5431,
      "Ġgefuhrt": 5432,
      "Ġtalk": 5433,
      "Ġschriftlich": 5434,
      "ari": 5435,
      "onom": 5436,
      "ads": 5437,
      "Ġatmosphere": 5438,
      "Ġgrun": 5439,
      "erien": 5440,
      "Ġregierungen": 5441,
      "Ġversuchen": 5442,
      "nal": 5443,
      "Ġaudio": 5444,
      "Ġ90": 5445,
      "Ġband": 5446,
      "adem": 5447,
      "Ġspain": 5448,
      "gesellschaft": 5449,
      "organisation": 5450,
      "ierenden": 5451,
      "uz": 5452,
      "Ġ=": 5453,
      "put": 5454,
      "rehen": 5455,
      "Ġenlargement": 5456,
      "haupt": 5457,
      "Ġmedium": 5458,
      "Ġregime": 5459,
      "Ġeinfuhrung": 5460,
      "Ġcapacity": 5461,
      "Ġpressure": 5462,
      "Ġactions": 5463,
      "Ġplaces": 5464,
      "Ġstellung": 5465,
      "ehr": 5466,
      "Ġvertrags": 5467,
      "eur": 5468,
      "ffee": 5469,
      "ĠgroÃŁten": 5470,
      "Ġmos": 5471,
      "lier": 5472,
      "Ġregulations": 5473,
      "Ġcd": 5474,
      "iplom": 5475,
      "Ġrelevant": 5476,
      "Ġcriter": 5477,
      "okoll": 5478,
      "Ġreached": 5479,
      "mitt": 5480,
      "Ġbestimmte": 5481,
      "Ġassistance": 5482,
      "Ġverkauf": 5483,
      "Ġleave": 5484,
      "Ġprepared": 5485,
      "Ġmart": 5486,
      "zub": 5487,
      "Ġitaly": 5488,
      "Ġpaper": 5489,
      "heben": 5490,
      "Ġkoordin": 5491,
      "Ġeinsch": 5492,
      "Ġkonfl": 5493,
      "Ġreduce": 5494,
      "Ġsteu": 5495,
      "Ġconstruction": 5496,
      "16": 5497,
      "Ġ26": 5498,
      "Ġafr": 5499,
      "bert": 5500,
      "Ġwann": 5501,
      "Ġbestand": 5502,
      "cia": 5503,
      "vision": 5504,
      "rec": 5505,
      "Ġbase": 5506,
      "altungs": 5507,
      "ought": 5508,
      "erences": 5509,
      "este": 5510,
      "Ġkoh": 5511,
      "treten": 5512,
      "Ġwww": 5513,
      "Ġ70": 5514,
      "Ġswimming": 5515,
      "Ġtransparen": 5516,
      "kauf": 5517,
      "artige": 5518,
      "Ġwirtschaftliche": 5519,
      "Ġwritten": 5520,
      "Ġrepla": 5521,
      "Ġgewahrleisten": 5522,
      "agra": 5523,
      "ored": 5524,
      "istics": 5525,
      "Ġumgebung": 5526,
      "Ġdecided": 5527,
      "Ġstabilitat": 5528,
      "Ġgott": 5529,
      "Ġitalian": 5530,
      "Ġverpflich": 5531,
      "feld": 5532,
      "inted": 5533,
      "Ġmel": 5534,
      "Ġerfolgreich": 5535,
      "Ġpriority": 5536,
      "Ġwoll": 5537,
      "Ġplat": 5538,
      "Ġerfull": 5539,
      "Ġfamilie": 5540,
      "Ġpor": 5541,
      "14": 5542,
      "Ġcause": 5543,
      "Ġzivil": 5544,
      "Ġfrequ": 5545,
      "Ġratsprasident": 5546,
      "Ġregeln": 5547,
      "Ġclosed": 5548,
      "Ġku": 5549,
      "anken": 5550,
      "Ġgives": 5551,
      "Ġgebracht": 5552,
      "Ġbuy": 5553,
      "Ġausgestattet": 5554,
      "Ġanderer": 5555,
      "Ġbefur": 5556,
      "Ġnav": 5557,
      "Ġvorliegen": 5558,
      "Ġfreiheit": 5559,
      "Ġerwahn": 5560,
      "ado": 5561,
      "legung": 5562,
      "Ġtab": 5563,
      "Ġglauben": 5564,
      "eff": 5565,
      "zone": 5566,
      "Ġerster": 5567,
      "Ġtask": 5568,
      "Ġaktion": 5569,
      "Ġupd": 5570,
      "Ġbein": 5571,
      "employ": 5572,
      "Ġsports": 5573,
      "Ġ300": 5574,
      "Ġpartnership": 5575,
      "Ġverstand": 5576,
      "Ġ''": 5577,
      "Ġsprache": 5578,
      "Ġthought": 5579,
      "Ġress": 5580,
      "Ġsuchen": 5581,
      "Ġremains": 5582,
      "Ġinhalt": 5583,
      "Ġquiet": 5584,
      "Ġdecember": 5585,
      "Ġcharge": 5586,
      "ych": 5587,
      "Ġprinzip": 5588,
      "Ġannoun": 5589,
      "Ġforms": 5590,
      "ierter": 5591,
      "Ġbillion": 5592,
      "mission": 5593,
      "here": 5594,
      "Ġbritish": 5595,
      "Ġzweitens": 5596,
      "Ġvoraus": 5597,
      "wind": 5598,
      "iately": 5599,
      "Ġfunding": 5600,
      "Ġstunden": 5601,
      "Ġhalt": 5602,
      "wurf": 5603,
      "Ġstandpunkt": 5604,
      "ii": 5605,
      "Ġey": 5606,
      "works": 5607,
      "iture": 5608,
      "Ġafrica": 5609,
      "kommens": 5610,
      "ugs": 5611,
      "Ġliebe": 5612,
      "rig": 5613,
      "Ġstudy": 5614,
      "Ġattempt": 5615,
      "Ġdoppel": 5616,
      "Ġmessage": 5617,
      "Ġhandeln": 5618,
      "Ġelse": 5619,
      "ously": 5620,
      "Ġbestimmten": 5621,
      "Ġislam": 5622,
      "Ġbot": 5623,
      "Ġfah": 5624,
      "Ġwettbewerb": 5625,
      "Ġdescrib": 5626,
      "Ġerfahren": 5627,
      "Ġselbstverstandlich": 5628,
      "Ġcreating": 5629,
      "Ġerachtens": 5630,
      "Ġkommissarin": 5631,
      "Ġbekampfung": 5632,
      "Ġgrunden": 5633,
      "Ġgeneration": 5634,
      "Ġauto": 5635,
      "losen": 5636,
      "99": 5637,
      "Ġkosovo": 5638,
      "Ġokt": 5639,
      "Ġext": 5640,
      "ugt": 5641,
      "Ġdinge": 5642,
      "Ġvorher": 5643,
      "son": 5644,
      "Ġassociation": 5645,
      "stein": 5646,
      "Ġmedien": 5647,
      "eth": 5648,
      "bit": 5649,
      "zeuge": 5650,
      "Ġanders": 5651,
      "Ġschweiz": 5652,
      "Ġfurthermore": 5653,
      "Ġfell": 5654,
      "unsch": 5655,
      "ften": 5656,
      "Ġvorgesehen": 5657,
      "Ġstructural": 5658,
      "Ġaspe": 5659,
      "Ġukraine": 5660,
      "ielt": 5661,
      "Ġprint": 5662,
      "sibilities": 5663,
      "Ġdrive": 5664,
      "Ġeinzige": 5665,
      "Ġjahrhundert": 5666,
      "ranean": 5667,
      "bek": 5668,
      "Ġthous": 5669,
      "rise": 5670,
      "mented": 5671,
      "Ġshopping": 5672,
      "Ġeigentlich": 5673,
      "Ġsupported": 5674,
      "Ġsignal": 5675,
      "Ġwto": 5676,
      "25": 5677,
      "mus": 5678,
      "Ġstil": 5679,
      "arily": 5680,
      "Ġpurpose": 5681,
      "fraktion": 5682,
      "Ġkamp": 5683,
      "Ġimprovement": 5684,
      "Ġsamt": 5685,
      "dra": 5686,
      "Ġengl": 5687,
      "rich": 5688,
      "Ġbege": 5689,
      "Ġlegislative": 5690,
      "Ġplus": 5691,
      "Ġaktivitaten": 5692,
      "wertung": 5693,
      "Ġsommer": 5694,
      "ateral": 5695,
      "atastrop": 5696,
      "Ġprasidentschaft": 5697,
      "anlage": 5698,
      "antly": 5699,
      "....": 5700,
      "Ġhot": 5701,
      "Ġdiplom": 5702,
      "eite": 5703,
      "Ġfortschritte": 5704,
      "eden": 5705,
      "Ġkal": 5706,
      "iete": 5707,
      "Ġrepe": 5708,
      "Ġwine": 5709,
      "Ġkra": 5710,
      "strateg": 5711,
      "Ġscheint": 5712,
      "view": 5713,
      "Ġrene": 5714,
      "page": 5715,
      "Ġbrought": 5716,
      "Ġconven": 5717,
      "Ġsquare": 5718,
      "Ġmat": 5719,
      "ghan": 5720,
      "stat": 5721,
      "Ġgesundheits": 5722,
      "ategories": 5723,
      "Ġdrink": 5724,
      "selves": 5725,
      "Ġmonet": 5726,
      "Ġmeasure": 5727,
      "Ġkol": 5728,
      "Ġsagte": 5729,
      "'.": 5730,
      "Ġbir": 5731,
      "Ġfirm": 5732,
      "Ġreduz": 5733,
      "moglichkeiten": 5734,
      "Ġdiscussion": 5735,
      "Ġzul": 5736,
      "geber": 5737,
      "Ġtechnologies": 5738,
      "Ġgefordert": 5739,
      "Ġparking": 5740,
      "Ġstatement": 5741,
      "Ġarrang": 5742,
      "fullen": 5743,
      "iciency": 5744,
      "Ġdezember": 5745,
      "Ġgewor": 5746,
      "Ġpreise": 5747,
      "rief": 5748,
      "Ġfishing": 5749,
      "Ġsales": 5750,
      "Ġinteresting": 5751,
      "unge": 5752,
      "Ġlake": 5753,
      "ym": 5754,
      "Ġvariety": 5755,
      "kor": 5756,
      "Ġgruppen": 5757,
      "Ġbestimmungen": 5758,
      "Ġplant": 5759,
      "Ġsolchen": 5760,
      "Ġzuge": 5761,
      "hindern": 5762,
      "reten": 5763,
      "Ġbio": 5764,
      "Ġbey": 5765,
      "Ġdanger": 5766,
      "Ġsolidarity": 5767,
      "Ġbulgar": 5768,
      "iro": 5769,
      "orial": 5770,
      "Ġrelationship": 5771,
      "Ġheim": 5772,
      "Ġgrenzen": 5773,
      "Ġsteps": 5774,
      "reibung": 5775,
      "ral": 5776,
      "Ġbestell": 5777,
      "Ġmas": 5778,
      "Ġminor": 5779,
      "Ġjanuary": 5780,
      "Ġhaufig": 5781,
      "Ġpleased": 5782,
      "Ġillegal": 5783,
      "Ġbundes": 5784,
      "Ġpath": 5785,
      "Ġprosp": 5786,
      "Ġkeiner": 5787,
      "Ġsecondly": 5788,
      "Ġpurs": 5789,
      "Ġminimum": 5790,
      "burger": 5791,
      "Ġcompon": 5792,
      "volle": 5793,
      "Ġafghan": 5794,
      "idge": 5795,
      "Ġausland": 5796,
      "Ġactivity": 5797,
      "Ġbrows": 5798,
      "Ġdiejenigen": 5799,
      "Ġsymbol": 5800,
      "Ġexam": 5801,
      "Ġexpla": 5802,
      "Ġkontin": 5803,
      "Ġcert": 5804,
      "Ġriver": 5805,
      "ero": 5806,
      "Ġful": 5807,
      "Ġagriculture": 5808,
      "Ġlate": 5809,
      "Ġagency": 5810,
      "Ġign": 5811,
      "Ġ1998": 5812,
      "Ġproduced": 5813,
      "ax": 5814,
      "rang": 5815,
      "endes": 5816,
      "Ġgluck": 5817,
      "Ġoctober": 5818,
      "Ġbezuglich": 5819,
      "Ġtourist": 5820,
      "Ġdetermin": 5821,
      "Ġcomprehen": 5822,
      "Ġtelefon": 5823,
      "Ġaufgenommen": 5824,
      "uff": 5825,
      "Ġgeist": 5826,
      "Ġbeide": 5827,
      "Ġlargest": 5828,
      "Ġarab": 5829,
      "Ġdeg": 5830,
      "Ġrh": 5831,
      "stag": 5832,
      "Ġvergessen": 5833,
      "Ġunternehmens": 5834,
      "Ġbildung": 5835,
      "Ġequal": 5836,
      "Ġlower": 5837,
      "Ġbecame": 5838,
      "tragen": 5839,
      "Ġvergangenen": 5840,
      "erc": 5841,
      "Ġsatell": 5842,
      "porary": 5843,
      "ategorien": 5844,
      "Ġaufmerksamkeit": 5845,
      "Ġprocedures": 5846,
      "Ġpunkte": 5847,
      "Ġfres": 5848,
      "Ġip": 5849,
      "Ġways": 5850,
      "mous": 5851,
      "Ġmoreover": 5852,
      "Ġmarz": 5853,
      "Ġbay": 5854,
      "Ġerklarung": 5855,
      "ugg": 5856,
      "ded": 5857,
      "Ġmonitoring": 5858,
      "Ġansatz": 5859,
      "lines": 5860,
      "chsel": 5861,
      "ita": 5862,
      "Ġweder": 5863,
      "Ġunterk": 5864,
      "Ġerlaub": 5865,
      "kom": 5866,
      "iker": 5867,
      "Ġnr": 5868,
      "Ġpalast": 5869,
      "angeb": 5870,
      "Ġnied": 5871,
      "Ġdeutsche": 5872,
      "oker": 5873,
      "Ġjur": 5874,
      "Ġappe": 5875,
      "Ġemissions": 5876,
      "Ġhistorical": 5877,
      "cement": 5878,
      "Ġstarted": 5879,
      "umb": 5880,
      "Ġexact": 5881,
      "Ġproduz": 5882,
      "Ġdocuments": 5883,
      "Ġdise": 5884,
      "bewertungen": 5885,
      "Ġeuropaischer": 5886,
      "Ġwenige": 5887,
      "igungen": 5888,
      "Ġeffort": 5889,
      "Ġentscheidungen": 5890,
      "Ġast": 5891,
      "Ġfant": 5892,
      "Ġwerte": 5893,
      "Ġrelation": 5894,
      "Ġimmo": 5895,
      "Ġerreich": 5896,
      "Ġregards": 5897,
      "Ġallowed": 5898,
      "ĠeinschlieÃŁlich": 5899,
      "Ġeroff": 5900,
      "gruppe": 5901,
      "Ġereign": 5902,
      "Ġ29": 5903,
      "Ġsometimes": 5904,
      "Ġspanish": 5905,
      "Ġdamage": 5906,
      "Ġkuche": 5907,
      "Ġloss": 5908,
      "Ġreading": 5909,
      "Ġagent": 5910,
      "park": 5911,
      "Ġfirstly": 5912,
      "Ġdaily": 5913,
      "etzung": 5914,
      "Ġrent": 5915,
      "ibility": 5916,
      "Ġlaunch": 5917,
      "Ġparam": 5918,
      "kund": 5919,
      "Ġinit": 5920,
      "Ġnumerous": 5921,
      "Ġelements": 5922,
      "Ġprovisions": 5923,
      "Ġfriends": 5924,
      "Ġerm": 5925,
      "Ġpil": 5926,
      "Ġvertreten": 5927,
      "Ġproduce": 5928,
      "Ġintegrated": 5929,
      "Ġgarten": 5930,
      "resse": 5931,
      "Ġdomin": 5932,
      "Ġgip": 5933,
      "Ġrelease": 5934,
      "Ġberuhm": 5935,
      "itude": 5936,
      "eg": 5937,
      "Ġviolence": 5938,
      "Ġprag": 5939,
      "Ġenterprise": 5940,
      "ager": 5941,
      "Ġverring": 5942,
      "Ġorganisations": 5943,
      "Ġworth": 5944,
      "Ġformat": 5945,
      "Ġoktober": 5946,
      "Ġpayment": 5947,
      "Ġub": 5948,
      "back": 5949,
      "Ġwein": 5950,
      "Ġdistance": 5951,
      "tes": 5952,
      "Ġgiving": 5953,
      "Ġanforderungen": 5954,
      "Ġcompromise": 5955,
      "ares": 5956,
      "Ġbeyond": 5957,
      "Ġeuch": 5958,
      "Ġzehn": 5959,
      "house": 5960,
      "haltnis": 5961,
      "Ġcontribution": 5962,
      "Ġgeeign": 5963,
      "Ġoffentliche": 5964,
      "Ġbeitragen": 5965,
      "Ġschen": 5966,
      "Ġleisten": 5967,
      "emb": 5968,
      "schw": 5969,
      "Ġberichts": 5970,
      "Ġtransparency": 5971,
      "Ġnachfol": 5972,
      "resp": 5973,
      "Ġunmittel": 5974,
      "ued": 5975,
      "Ġsonst": 5976,
      "kosten": 5977,
      "Ġlimit": 5978,
      "zusch": 5979,
      "Ġerwarten": 5980,
      "office": 5981,
      "Ġcurren": 5982,
      "Ġteach": 5983,
      "Ġbewusst": 5984,
      "Ġhinge": 5985,
      "sive": 5986,
      "Ġvorschriften": 5987,
      "Ġentsprechend": 5988,
      "Ġoffentlichkeit": 5989,
      "sam": 5990,
      "Ġagrar": 5991,
      "verty": 5992,
      "Ġbilder": 5993,
      "pass": 5994,
      "laden": 5995,
      "Ġdiskussion": 5996,
      "altet": 5997,
      "letzt": 5998,
      "Ġuntersuch": 5999,
      "Ġwellness": 6000,
      "Ġplen": 6001,
      "Ġgastebewertungen": 6002,
      "Ġpaar": 6003,
      "Ġjen": 6004,
      "âĢľ,": 6005,
      "Ġcollect": 6006,
      "Ġerstens": 6007,
      "24": 6008,
      "freund": 6009,
      "Ġanalysis": 6010,
      "Ġtrag": 6011,
      "Ġteilen": 6012,
      "Ġarbeitnehmer": 6013,
      "Ġdritt": 6014,
      "Ġbereiche": 6015,
      "Ġpoverty": 6016,
      "Ġjuli": 6017,
      "Ġoffiz": 6018,
      "Ġelektron": 6019,
      "Ġcriteria": 6020,
      "Ġwon": 6021,
      "Ġkonf": 6022,
      "Ġtransparenz": 6023,
      "Ġrevolution": 6024,
      "Ġblog": 6025,
      "Ġvertrauen": 6026,
      "Ġimmediately": 6027,
      "Ġstructure": 6028,
      "Ġeingesetzt": 6029,
      "bas": 6030,
      "Ġbeob": 6031,
      "Ġsecure": 6032,
      "Ġkennen": 6033,
      "inden": 6034,
      "nungen": 6035,
      "Ġleistungs": 6036,
      "Ġaffect": 6037,
      "Ġintell": 6038,
      "Ġlinux": 6039,
      "Ġtagesordnung": 6040,
      "Ġourselves": 6041,
      "Ġrapid": 6042,
      "Ġfeature": 6043,
      "Ġstarting": 6044,
      "Ġanfrage": 6045,
      "df": 6046,
      "pret": 6047,
      "Ġmachine": 6048,
      "Ġdecor": 6049,
      "Ġbetreffen": 6050,
      "Ġfine": 6051,
      "ilen": 6052,
      ".)": 6053,
      "Ġtypes": 6054,
      "Ġwichtiger": 6055,
      "abkommen": 6056,
      "Ġhappy": 6057,
      "Ġapplied": 6058,
      "gende": 6059,
      "Ġlisten": 6060,
      "Ġgele": 6061,
      "Ġperman": 6062,
      "Ġprovin": 6063,
      "Ġclients": 6064,
      "elten": 6065,
      "Ġoffering": 6066,
      "Ġlost": 6067,
      "Ġfruher": 6068,
      "ories": 6069,
      "Ġreality": 6070,
      "orge": 6071,
      "Ġgemeinschafts": 6072,
      "Ġbahn": 6073,
      "sprozess": 6074,
      "Ġbenefits": 6075,
      "ola": 6076,
      "Ġpatent": 6077,
      "Ġportugal": 6078,
      "dis": 6079,
      "Ġprasidenten": 6080,
      "Ġemployees": 6081,
      "Ġton": 6082,
      "Ġdurchgefuhrt": 6083,
      "Ġgeworden": 6084,
      "Ġgenommen": 6085,
      "Ġnationen": 6086,
      "Ġjuly": 6087,
      "ades": 6088,
      "Ġbenotigen": 6089,
      "Ġjournal": 6090,
      "Ġdefinition": 6091,
      "hab": 6092,
      "ription": 6093,
      "Ġmaximum": 6094,
      "Ġtourism": 6095,
      "Ġabhang": 6096,
      "sl": 6097,
      "Ġconstit": 6098,
      "Ġperfe": 6099,
      "ograf": 6100,
      "Ġconsist": 6101,
      "Ġauftrag": 6102,
      "Ġfirma": 6103,
      "Ġwr": 6104,
      "Ġopposition": 6105,
      "âĢ¦": 6106,
      "Ġalb": 6107,
      "Ġkilomet": 6108,
      "Ġthreat": 6109,
      "Ġinvestitionen": 6110,
      "Ġbesondere": 6111,
      "reng": 6112,
      "Ġvital": 6113,
      "fi": 6114,
      "Ġhighest": 6115,
      "Ġmonetary": 6116,
      "23": 6117,
      "Ġbezahl": 6118,
      "Ġphase": 6119,
      "Ġforum": 6120,
      "Ġinitial": 6121,
      "80": 6122,
      "ktoren": 6123,
      "iente": 6124,
      "Ġdauer": 6125,
      "iction": 6126,
      "Ġsinne": 6127,
      "orgung": 6128,
      "Ġlob": 6129,
      "wortern": 6130,
      "ringen": 6131,
      "Ġjanuar": 6132,
      "Ġtrack": 6133,
      "Ġalp": 6134,
      "Ġhalte": 6135,
      "Ġunemploy": 6136,
      "ierende": 6137,
      "Ġvision": 6138,
      "Ġoptions": 6139,
      "Ġaktuellen": 6140,
      "Ġadministration": 6141,
      "ounts": 6142,
      "olf": 6143,
      "Ġhelpful": 6144,
      "Ġtomor": 6145,
      "Ġgod": 6146,
      "Ġforces": 6147,
      "Ġmetho": 6148,
      "Ġkannst": 6149,
      "Ġuseful": 6150,
      "Ġreference": 6151,
      "Ġgefunden": 6152,
      "Ġfeed": 6153,
      "Ġlove": 6154,
      "Ġtomorrow": 6155,
      "Ġcrimin": 6156,
      "Ġziehen": 6157,
      "Ġwahrschein": 6158,
      "Ġminder": 6159,
      "zt": 6160,
      "Ġtier": 6161,
      "Ġvorsitz": 6162,
      "Ġwahrung": 6163,
      "...\"": 6164,
      "Ġlangfrist": 6165,
      "Ġverme": 6166,
      "Ġiraq": 6167,
      "ritts": 6168,
      "Ġpersons": 6169,
      "body": 6170,
      "Ġelections": 6171,
      "Ġchallenges": 6172,
      "Ġscientific": 6173,
      "Ġconflict": 6174,
      "ivity": 6175,
      "urance": 6176,
      "Ġaufenthalt": 6177,
      "Ġgros": 6178,
      "Ġuner": 6179,
      "!!": 6180,
      "Ġ35": 6181,
      "Ġprocesses": 6182,
      "anted": 6183,
      "wiesen": 6184,
      "leitet": 6185,
      "zeichnung": 6186,
      "Ġerneut": 6187,
      "Ġlaufen": 6188,
      "eks": 6189,
      "Ġregistr": 6190,
      "Ġdefen": 6191,
      "Ġplayers": 6192,
      "leistung": 6193,
      "Ġprojekte": 6194,
      "Ġkorper": 6195,
      "Ġorient": 6196,
      "Ġsieht": 6197,
      "Ġeinfluss": 6198,
      "Ġspezif": 6199,
      "hoben": 6200,
      "Ġannual": 6201,
      "Ġattract": 6202,
      "ql": 6203,
      "Ġinfrastruct": 6204,
      "ata": 6205,
      "Ġgeschaffen": 6206,
      "Ġsort": 6207,
      "craft": 6208,
      "Ġ1997": 6209,
      "Ġundert": 6210,
      "Ġsong": 6211,
      "Ġauffassung": 6212,
      "Ġphoto": 6213,
      "Ġtrip": 6214,
      "iber": 6215,
      "ieht": 6216,
      "Ġpraxis": 6217,
      "ns": 6218,
      "Ġfon": 6219,
      "Ġlebensmittel": 6220,
      "Ġcompos": 6221,
      "Ġcolleagues": 6222,
      "ammlung": 6223,
      "Ġeher": 6224,
      "Ġrecon": 6225,
      "Ġnacht": 6226,
      "abor": 6227,
      "Ġsache": 6228,
      "Ġteile": 6229,
      "achtung": 6230,
      "--": 6231,
      "Ġstarker": 6232,
      "Ġcos": 6233,
      "Ġ31": 6234,
      "Ġchallenge": 6235,
      "ystem": 6236,
      "Ġmediterranean": 6237,
      "Ġoperating": 6238,
      "uls": 6239,
      "bezogen": 6240,
      "Ġverabsch": 6241,
      "Ġmission": 6242,
      "Ġsaying": 6243,
      "Ġburgern": 6244,
      "zentrum": 6245,
      "zehn": 6246,
      "Ġpaid": 6247,
      "Ġpractical": 6248,
      "Ġphilos": 6249,
      "Ġcohes": 6250,
      "Ġconsequences": 6251,
      "Ġgall": 6252,
      "ritten": 6253,
      "pun": 6254,
      "Ġexception": 6255,
      "Ġbedroom": 6256,
      "ĠstraÃŁen": 6257,
      "Ġsechs": 6258,
      "Ġbringt": 6259,
      "bro": 6260,
      "Ġideas": 6261,
      "Ġvalid": 6262,
      "erte": 6263,
      "Ġehr": 6264,
      "Ġliter": 6265,
      "Ġsecret": 6266,
      "Ġarmut": 6267,
      "Ġbald": 6268,
      "Ġhistoric": 6269,
      "ivitat": 6270,
      "Ġearth": 6271,
      "Ġmaster": 6272,
      "zi": 6273,
      "Ġlernen": 6274,
      "Ġgoes": 6275,
      "Ġinf": 6276,
      "Ġcell": 6277,
      "Ġpas": 6278,
      "indest": 6279,
      "Ġwalking": 6280,
      "vertrag": 6281,
      "Ġpictures": 6282,
      "Ġna": 6283,
      "Ġgunst": 6284,
      "hle": 6285,
      "richten": 6286,
      "ĠbegruÃŁe": 6287,
      "arkt": 6288,
      "Ġanderung": 6289,
      "Ġimages": 6290,
      "aign": 6291,
      "head": 6292,
      "pal": 6293,
      "Ġfoundation": 6294,
      "Ġempf": 6295,
      "Ġentsprechenden": 6296,
      "Ġbedarf": 6297,
      "Ġcoup": 6298,
      "ione": 6299,
      "Ġotherwise": 6300,
      "Ġfried": 6301,
      "Ġwaste": 6302,
      "achung": 6303,
      "ogle": 6304,
      "Ġoffered": 6305,
      "Ġverhalten": 6306,
      "Ġzufrieden": 6307,
      "Ġneighbour": 6308,
      "Ġsolidaritat": 6309,
      "mod": 6310,
      "Ġnachbar": 6311,
      "Ġaufgaben": 6312,
      "izin": 6313,
      "Ġclar": 6314,
      "Ġbrief": 6315,
      "Ġadvert": 6316,
      "Ġkredit": 6317,
      "Ġdeine": 6318,
      "Ġlines": 6319,
      "Ġberat": 6320,
      "Ġsprach": 6321,
      "othe": 6322,
      "Ġtagen": 6323,
      "Ġkomplex": 6324,
      "Ġflor": 6325,
      "Ġwelcom": 6326,
      "Ġrural": 6327,
      "Ġschlusselwortern": 6328,
      "Ġworldwide": 6329,
      "Ġspee": 6330,
      "Ġcampaign": 6331,
      "attung": 6332,
      "Ġcapt": 6333,
      "Ġbeant": 6334,
      "Ġlesen": 6335,
      "Ġwiederhol": 6336,
      "Ġessen": 6337,
      "Ġadvantage": 6338,
      "gesetz": 6339,
      "Ġschwar": 6340,
      "Ġrichtige": 6341,
      "Ġlanger": 6342,
      "karte": 6343,
      "Ġbedurf": 6344,
      "Ġkapital": 6345,
      "Ġsufficient": 6346,
      "klar": 6347,
      "Ġlinie": 6348,
      "Ġbemuhungen": 6349,
      "Ġheav": 6350,
      "mm": 6351,
      "Ġmix": 6352,
      "Ġvertreter": 6353,
      "Ġmedic": 6354,
      "Ġverhindern": 6355,
      "Ġwelches": 6356,
      "cs": 6357,
      "Ġcounter": 6358,
      "Ġcomprehensive": 6359,
      "Ġmonaten": 6360,
      "Ġshop": 6361,
      "Ġfrem": 6362,
      "Ġehem": 6363,
      "Ġrequires": 6364,
      "Ġerd": 6365,
      "Ġerfolgt": 6366,
      "Ġready": 6367,
      "Ġbeschluss": 6368,
      "Ġpruf": 6369,
      "uhr": 6370,
      "based": 6371,
      "Ġweak": 6372,
      "Ġmoderne": 6373,
      "Ġressourcen": 6374,
      "raten": 6375,
      "Ġbegin": 6376,
      "Ġremember": 6377,
      "Ġweeks": 6378,
      "book": 6379,
      "fuhl": 6380,
      "Ġborder": 6381,
      "Ġtouch": 6382,
      "Ġsam": 6383,
      "Ġcircum": 6384,
      "Ġcollection": 6385,
      "used": 6386,
      "Ð»": 6387,
      "Ġmorning": 6388,
      "Ġded": 6389,
      "Ġefficiency": 6390,
      "Ġinterpret": 6391,
      "iveau": 6392,
      "Ġreduction": 6393,
      "Ġdir": 6394,
      "Ġcharakter": 6395,
      "Ġdub": 6396,
      "Ġangeboten": 6397,
      "Ġfitness": 6398,
      "Ġgenannten": 6399,
      "Ġbeweg": 6400,
      "ĠÂ»": 6401,
      "gere": 6402,
      "ls": 6403,
      "Ġrock": 6404,
      "Ġjem": 6405,
      "Ġnimmt": 6406,
      "Ġdoubt": 6407,
      "ienz": 6408,
      "Ġvisitors": 6409,
      "Ġauthority": 6410,
      "Ġfolge": 6411,
      "Ġrepublik": 6412,
      "Ġanderem": 6413,
      "Ġbehandelt": 6414,
      "Ġoffens": 6415,
      "Ġhund": 6416,
      "Ġgetan": 6417,
      "estic": 6418,
      "Ġverbind": 6419,
      "Ġmicrosoft": 6420,
      "Ġgek": 6421,
      "Ġrelating": 6422,
      "Ġlanguages": 6423,
      "Ġmodified": 6424,
      "Ġselection": 6425,
      "Ġsitzung": 6426,
      "Ġunbed": 6427,
      "Ġlives": 6428,
      "Ġkonzept": 6429,
      "Ġterrace": 6430,
      "Ġconver": 6431,
      "Ġcrucial": 6432,
      "Ġpowers": 6433,
      "{{": 6434,
      "ilitat": 6435,
      "Ġpublished": 6436,
      "Ġbesuchen": 6437,
      "Ġgewahl": 6438,
      "Ġanything": 6439,
      "Ġswiss": 6440,
      "ids": 6441,
      "Ġheil": 6442,
      "auern": 6443,
      "Ġlies": 6444,
      "zeiten": 6445,
      "stelle": 6446,
      "ris": 6447,
      "ahrungs": 6448,
      "board": 6449,
      "Ġwunschen": 6450,
      "Ġkonstru": 6451,
      "Ġhaft": 6452,
      "Ġoverall": 6453,
      "Ġprobably": 6454,
      "Ġcongratulate": 6455,
      "nes": 6456,
      "Ġcasino": 6457,
      "Ġpalest": 6458,
      "Ġbehandlung": 6459,
      "98": 6460,
      "Ġcam": 6461,
      "durch": 6462,
      "Ġimplemented": 6463,
      "andert": 6464,
      "Ġaustria": 6465,
      "Ġburgerinnen": 6466,
      "Ġconvin": 6467,
      "Ġfisheries": 6468,
      "Ġvoting": 6469,
      "Ġgrowing": 6470,
      "Ġkomplett": 6471,
      "Ġchann": 6472,
      "Ġprotokoll": 6473,
      "Ġfarmers": 6474,
      "ichert": 6475,
      "Ġgebrauch": 6476,
      "itzer": 6477,
      "action": 6478,
      "Ġcohesion": 6479,
      "kret": 6480,
      "Ġjoin": 6481,
      "Ġfolgenden": 6482,
      "Ġterrorism": 6483,
      "Ġverstark": 6484,
      "Ġversucht": 6485,
      "ordination": 6486,
      "olid": 6487,
      "splan": 6488,
      "Ġmex": 6489,
      "Ġcolor": 6490,
      "ischem": 6491,
      "Ġbeein": 6492,
      "loss": 6493,
      "sicherheit": 6494,
      "zielle": 6495,
      "Ġdanke": 6496,
      "illa": 6497,
      "Ġimmobil": 6498,
      "Ġmilliar": 6499,
      "Ġverurs": 6500,
      "Ġvac": 6501,
      "Ġfestival": 6502,
      "Ġcaused": 6503,
      "Ġmultip": 6504,
      "Ġatmosphare": 6505,
      "ellschaften": 6506,
      "Ġerklart": 6507,
      "itarian": 6508,
      "Ġgebaude": 6509,
      "Ġchair": 6510,
      "Ġausreich": 6511,
      "Ġspieler": 6512,
      "Ġcolour": 6513,
      "Ġaufbau": 6514,
      "das": 6515,
      "Ġbab": 6516,
      "Ġmeaning": 6517,
      "Ġforschungs": 6518,
      "Ġzumindest": 6519,
      "Ġsonder": 6520,
      "Ġirak": 6521,
      "cco": 6522,
      "Ġpanor": 6523,
      "Ġwatch": 6524,
      "Ġeinst": 6525,
      "Ġuberhaupt": 6526,
      "set": 6527,
      "Ġpsych": 6528,
      "Ġvorschlagen": 6529,
      "Ġfreuen": 6530,
      "Ġgerichts": 6531,
      "version": 6532,
      "Ġbudgetary": 6533,
      "Ġfab": 6534,
      "sport": 6535,
      "Ġusw": 6536,
      "Ġveroffent": 6537,
      "Ġerfullen": 6538,
      "Ġarchite": 6539,
      "Ġcritic": 6540,
      "Ġship": 6541,
      "Ġcook": 6542,
      "Ġerfahrungen": 6543,
      "Ġaccordance": 6544,
      "Ġemb": 6545,
      "gef": 6546,
      "Ġtechnologie": 6547,
      "Ġcandid": 6548,
      "theless": 6549,
      "rankt": 6550,
      "):": 6551,
      "Ġplans": 6552,
      "itch": 6553,
      "ktions": 6554,
      "Ġinterested": 6555,
      "Ġupdate": 6556,
      "Ġberucksichtigt": 6557,
      "wasser": 6558,
      "Ġbewer": 6559,
      "Ġzerst": 6560,
      "Ġnevertheless": 6561,
      "Ġhold": 6562,
      "scheid": 6563,
      "Ġfinanzierung": 6564,
      "Ġeastern": 6565,
      "esch": 6566,
      "Ġtechnischen": 6567,
      "ĠauÃŁerhalb": 6568,
      "Ġgesamt": 6569,
      "Ġzusatzlich": 6570,
      "how": 6571,
      "Ġgewesen": 6572,
      "Ġfreiz": 6573,
      "hafte": 6574,
      "Ġ194": 6575,
      "Ġauszu": 6576,
      "Ġhonour": 6577,
      "Ġprime": 6578,
      "03": 6579,
      "Ġseg": 6580,
      "Ġmethods": 6581,
      "Ġzahlreichen": 6582,
      "Ġwood": 6583,
      "kontro": 6584,
      "Ġextent": 6585,
      "pra": 6586,
      "can": 6587,
      "Ġzweck": 6588,
      "Ġones": 6589,
      "Ġcham": 6590,
      "Ġkitchen": 6591,
      "Ġausgezeichnet": 6592,
      "Ġerhol": 6593,
      "Ġanc": 6594,
      "ius": 6595,
      "Ġil": 6596,
      "pool": 6597,
      "Ġhomepage": 6598,
      "Ġtransparent": 6599,
      "cepted": 6600,
      "Ġbusinesses": 6601,
      "Ġchamp": 6602,
      "flache": 6603,
      "Ġkompet": 6604,
      "Ġschutzen": 6605,
      "mand": 6606,
      "Ġincor": 6607,
      "ĠgroÃŁte": 6608,
      "Ġcompetit": 6609,
      "Ġfirmen": 6610,
      "Ġprovider": 6611,
      "Ġrub": 6612,
      "Ġbegan": 6613,
      "Ġgoogle": 6614,
      "Ġjohn": 6615,
      "ÂŃ": 6616,
      "Ġzuver": 6617,
      "Ġstrategic": 6618,
      "lim": 6619,
      "Ġspecif": 6620,
      "Ġconcentr": 6621,
      "Ġcurrency": 6622,
      "utive": 6623,
      "aint": 6624,
      "Ġcontro": 6625,
      "Ġbetriebs": 6626,
      "Ġseason": 6627,
      "Ġspanien": 6628,
      "Ġgeorg": 6629,
      "Ġletzte": 6630,
      "nungs": 6631,
      "ault": 6632,
      "Ġstets": 6633,
      "Ġaspekte": 6634,
      "Ġvergangenheit": 6635,
      "Ġvul": 6636,
      "}}": 6637,
      "Ġkunstler": 6638,
      "Ġada": 6639,
      "Ġfederal": 6640,
      "Ġapprec": 6641,
      "bericht": 6642,
      "iling": 6643,
      "izing": 6644,
      "Ġbanks": 6645,
      "Ġhistorischen": 6646,
      "Ġmur": 6647,
      "Ġdelegation": 6648,
      "Ġklass": 6649,
      "bung": 6650,
      "Ġire": 6651,
      "zul": 6652,
      "Ġkontext": 6653,
      "rate": 6654,
      "Ġmedical": 6655,
      "Ġtraffic": 6656,
      "Ġbars": 6657,
      "Ġterrorismus": 6658,
      "Ġwanted": 6659,
      "cul": 6660,
      "grundet": 6661,
      "nel": 6662,
      "Ġrob": 6663,
      "oder": 6664,
      "izes": 6665,
      "legten": 6666,
      "Ġanstreng": 6667,
      "Ġjeweiligen": 6668,
      "Ġinvestig": 6669,
      "Ġerinnern": 6670,
      "Ġverpflichtet": 6671,
      "Ġsectors": 6672,
      "Ġdatab": 6673,
      "Ġpension": 6674,
      "Ġchinese": 6675,
      "',": 6676,
      "Ġrecover": 6677,
      "elines": 6678,
      "Ġverantwortlich": 6679,
      "Ġkrank": 6680,
      "Ġexerc": 6681,
      "setzt": 6682,
      "Ġbeginnen": 6683,
      "Ġgetroffen": 6684,
      "Ġmodell": 6685,
      "Ġcatal": 6686,
      "Ġgross": 6687,
      "Ġrepresentatives": 6688,
      "ries": 6689,
      "Ġwild": 6690,
      "Ġseines": 6691,
      "Ġvorbe": 6692,
      "Ġreflect": 6693,
      "Ġopfer": 6694,
      "Ġborders": 6695,
      "ibe": 6696,
      "kle": 6697,
      "Ġfrankfur": 6698,
      "Ġgn": 6699,
      "Ġunten": 6700,
      "Ð³": 6701,
      "Ġvollstandig": 6702,
      "Ġentgegen": 6703,
      "rant": 6704,
      "Ġaccepted": 6705,
      "zwe": 6706,
      "Ġfields": 6707,
      "Ġmanager": 6708,
      "Ġabsolutely": 6709,
      "Ġmanufactur": 6710,
      "Ġprocessing": 6711,
      "Ġmodernen": 6712,
      "Ġdol": 6713,
      "Ġintervention": 6714,
      "Ġhause": 6715,
      "meer": 6716,
      "Ġseparate": 6717,
      "Ġprozent": 6718,
      "Ġsurpr": 6719,
      "Ġphilosoph": 6720,
      "arian": 6721,
      "Ġendlich": 6722,
      "Ġ1996": 6723,
      "Ġstudio": 6724,
      "Ġreag": 6725,
      "Ġreception": 6726,
      "Ġschritte": 6727,
      "estens": 6728,
      "Ġsimpl": 6729,
      "Ġpersonlichen": 6730,
      "Ġopening": 6731,
      "Ġfreien": 6732,
      "Ġgenug": 6733,
      "Ġdemokratischen": 6734,
      "Ġtrying": 6735,
      "Ġelectronic": 6736,
      "Ġfolgt": 6737,
      "orsitz": 6738,
      "Ġherunter": 6739,
      "Ġsubstant": 6740,
      "Ġspl": 6741,
      "Ġvorgehen": 6742,
      "Ġstudents": 6743,
      "verage": 6744,
      "Ġjeg": 6745,
      "Ġaktual": 6746,
      "Ġprefer": 6747,
      "Ġfla": 6748,
      "Ġfinanziellen": 6749,
      "Ġaccession": 6750,
      "Ġplatform": 6751,
      "vollen": 6752,
      "Ġoccup": 6753,
      "Ġethn": 6754,
      "last": 6755,
      "Ġguter": 6756,
      "systeme": 6757,
      "Ġfresh": 6758,
      "Ġserb": 6759,
      "Ġperspect": 6760,
      "Ġargument": 6761,
      "ĠabschlieÃŁend": 6762,
      "Ġbessere": 6763,
      "standing": 6764,
      "comm": 6765,
      "Ġpolice": 6766,
      "Ġmap": 6767,
      "Ġverste": 6768,
      "ham": 6769,
      "Ġregierungs": 6770,
      "barer": 6771,
      "Ġaudit": 6772,
      "Ġrechtsvorschriften": 6773,
      "Ġrussian": 6774,
      "mente": 6775,
      "rust": 6776,
      "Ġspect": 6777,
      "Ġeinzu": 6778,
      "Ġparteien": 6779,
      "Ġsuite": 6780,
      "lose": 6781,
      "âĢĿ.": 6782,
      "Ġfahren": 6783,
      "Ġinfluence": 6784,
      "Ġireland": 6785,
      "Ġbos": 6786,
      "Ġbelieb": 6787,
      "Ġleaders": 6788,
      "Ġboden": 6789,
      "ming": 6790,
      "ichern": 6791,
      "Ġhafen": 6792,
      "âĦ": 6793,
      "Ġproceed": 6794,
      "Ġkore": 6795,
      "Ġraised": 6796,
      "Ġtaus": 6797,
      "Ġchines": 6798,
      "losigkeit": 6799,
      "Ġclaim": 6800,
      "altungen": 6801,
      "Ġerlaubt": 6802,
      "Ġamt": 6803,
      "utze": 6804,
      "oke": 6805,
      "Ġangelegenheit": 6806,
      "Ġheutigen": 6807,
      "Ġcorporate": 6808,
      "Ġscreen": 6809,
      "Ġsprachen": 6810,
      "Ġplanning": 6811,
      "Ġquant": 6812,
      "Ġauth": 6813,
      "ected": 6814,
      "werte": 6815,
      "ĠâĢĶ": 6816,
      "zeichen": 6817,
      "Ġrestrict": 6818,
      "Ġdistrict": 6819,
      "Ġverwaltung": 6820,
      "yal": 6821,
      "Ġmitte": 6822,
      "akte": 6823,
      "Ġwebsites": 6824,
      "hilfen": 6825,
      "Ġurg": 6826,
      "Ġflexible": 6827,
      "ĠausschlieÃŁlich": 6828,
      "Ġkorre": 6829,
      "ky": 6830,
      "Ġrespekt": 6831,
      "mas": 6832,
      "Ġangelegenheiten": 6833,
      "Ġeinwander": 6834,
      "bezieh": 6835,
      "Ġdelivery": 6836,
      "Ġempfang": 6837,
      "Ġschwierigkeiten": 6838,
      "Ġherausforderungen": 6839,
      "Ġhosp": 6840,
      "Ġmotion": 6841,
      "Ġsorg": 6842,
      "strategie": 6843,
      "Ġbedro": 6844,
      "Ġcities": 6845,
      "Ġprovision": 6846,
      "ĠÂ«": 6847,
      "Ġdemands": 6848,
      "Ġgraph": 6849,
      "Ġcalls": 6850,
      "nach": 6851,
      "Ġmad": 6852,
      "quem": 6853,
      "Ġbitten": 6854,
      "icherung": 6855,
      "Ġberichterstatterin": 6856,
      "eben": 6857,
      "Ġnato": 6858,
      "Ġdenken": 6859,
      "Ġpoker": 6860,
      "Ġannahme": 6861,
      "Ġnamely": 6862,
      "reise": 6863,
      "Ġphone": 6864,
      "âĦ¢": 6865,
      "Ġproduktions": 6866,
      "Ġsubsidiar": 6867,
      "Ġehemal": 6868,
      "Ġdefence": 6869,
      "Ġfrag": 6870,
      "Ġeindruck": 6871,
      "Ġexisten": 6872,
      "sec": 6873,
      "Ġdisp": 6874,
      "Ġentstehen": 6875,
      "Ġvorge": 6876,
      "gebiet": 6877,
      "Ġerwartet": 6878,
      "annen": 6879,
      "akes": 6880,
      "Ġstarke": 6881,
      "zusetzen": 6882,
      "leistungs": 6883,
      "Ġbenutzen": 6884,
      "Ġsave": 6885,
      "Ġdvd": 6886,
      "Ġversuch": 6887,
      "Ġhervorragen": 6888,
      "Ġnegative": 6889,
      "Ġchanged": 6890,
      "ras": 6891,
      "Ġevening": 6892,
      "Ġfel": 6893,
      "Ġubernehmen": 6894,
      "Ġwrong": 6895,
      "Ġinitiatives": 6896,
      "Ġprivaten": 6897,
      "Ġeffizient": 6898,
      "Ġpoll": 6899,
      "afft": 6900,
      "Ġ).": 6901,
      "Ġscience": 6902,
      "Ġluxem": 6903,
      "97": 6904,
      "gult": 6905,
      "Ġadministrative": 6906,
      "Ġ195": 6907,
      "Ġcentr": 6908,
      "Ġeinrichtung": 6909,
      "Ġfear": 6910,
      "Ġcrime": 6911,
      "ruption": 6912,
      "Ġcomments": 6913,
      "Ġkompromiss": 6914,
      "Ġangene": 6915,
      "prasident": 6916,
      "Ġslo": 6917,
      "Ġkonsequ": 6918,
      "Ġnationale": 6919,
      "Ġbegriff": 6920,
      "Ġrunning": 6921,
      "Ġrenew": 6922,
      "anda": 6923,
      "Ġcircumst": 6924,
      "inform": 6925,
      "Ġsetzt": 6926,
      "Ġgoal": 6927,
      "Ġirgend": 6928,
      "Ġdollar": 6929,
      "Â´": 6930,
      "Ġkaum": 6931,
      "Ġbewahr": 6932,
      "entwicklung": 6933,
      "Ġelegant": 6934,
      "Ġzusatzliche": 6935,
      "Ġdun": 6936,
      "bringen": 6937,
      "Ġimproved": 6938,
      "olo": 6939,
      "Ġhtt": 6940,
      "aters": 6941,
      "Ġfamilies": 6942,
      "Ġgesehen": 6943,
      "Ġworked": 6944,
      "fuge": 6945,
      "Ġtalking": 6946,
      "Ġsad": 6947,
      "Ġschm": 6948,
      "Ġwesentlichen": 6949,
      "falle": 6950,
      "Ġdisapp": 6951,
      "Ġblue": 6952,
      "attle": 6953,
      "Ġyourself": 6954,
      "Ġfluss": 6955,
      "ighted": 6956,
      "box": 6957,
      "Ġheard": 6958,
      "Ġspeziell": 6959,
      "Ġbod": 6960,
      "uals": 6961,
      "Ġintended": 6962,
      "Ðº": 6963,
      "Ġbestimmt": 6964,
      "Ġliz": 6965,
      "iser": 6966,
      "Ġsauna": 6967,
      "Ġlicht": 6968,
      "Ġoccur": 6969,
      "ocol": 6970,
      "Ġbehinder": 6971,
      "Ġmulti": 6972,
      "Ġelectric": 6973,
      "hre": 6974,
      "Ġsektor": 6975,
      "Ġdanach": 6976,
      "Ġexpressed": 6977,
      "Ġautomatically": 6978,
      "rary": 6979,
      "Ġarbeitsplatze": 6980,
      "iell": 6981,
      "Ġentw": 6982,
      "Ġautomatisch": 6983,
      "ĠbegruÃŁen": 6984,
      "ev": 6985,
      "europe": 6986,
      "Ġafghanistan": 6987,
      "iant": 6988,
      "immern": 6989,
      "Ġlaws": 6990,
      "Ġbrowser": 6991,
      "Ġverfassung": 6992,
      "erungen": 6993,
      "ĠgroÃŁere": 6994,
      "handel": 6995,
      "isely": 6996,
      "22": 6997,
      "Ġdarstellt": 6998,
      "Ġplaced": 6999,
      "Ġparliamentary": 7000,
      "Ġability": 7001,
      "Ġunbe": 7002,
      "Ġsole": 7003,
      "Ġcommitted": 7004,
      "Ġverur": 7005,
      "Ġverwir": 7006,
      "hood": 7007,
      "Ġminute": 7008,
      "Ġusually": 7009,
      "Ġkenn": 7010,
      "Ġferner": 7011,
      "scht": 7012,
      "poses": 7013,
      "Ġalone": 7014,
      "Ġaktuelle": 7015,
      "Â²": 7016,
      "Ġphotos": 7017,
      "Ġantrag": 7018,
      "Ġbesonderen": 7019,
      "Ġmainly": 7020,
      "Ġeindeutig": 7021,
      "Ġhit": 7022,
      "omb": 7023,
      "Ġaqu": 7024,
      "Ġtransform": 7025,
      "Ġinfrastructure": 7026,
      "Ġmilliarden": 7027,
      "//": 7028,
      "acc": 7029,
      "bad": 7030,
      "bald": 7031,
      "anlagen": 7032,
      "Ġmeter": 7033,
      "Ġbilden": 7034,
      "Ġmedizin": 7035,
      "lieÃŁen": 7036,
      "Ġcriminal": 7037,
      "Ġspecifically": 7038,
      "su": 7039,
      "Ġgleiche": 7040,
      "umin": 7041,
      "struktur": 7042,
      "Ġnorm": 7043,
      "Ġsolar": 7044,
      "Ġconfirm": 7045,
      "Ġsuitable": 7046,
      "Ġvorzu": 7047,
      "Ġcoordin": 7048,
      "Ġtrust": 7049,
      "Ġausgang": 7050,
      "Ġentschieden": 7051,
      "Ġbenutzt": 7052,
      "Ġdead": 7053,
      "Ġmm": 7054,
      "Ġauss": 7055,
      "Ġmoglicherweise": 7056,
      "Ġdringend": 7057,
      "Ġhear": 7058,
      "polit": 7059,
      "schnitt": 7060,
      "Ġunemployment": 7061,
      "Ġoly": 7062,
      "flug": 7063,
      "tellten": 7064,
      "bourg": 7065,
      "Ġcontem": 7066,
      "Ġleute": 7067,
      "ifizierung": 7068,
      "seite": 7069,
      "agn": 7070,
      "Ġincreasingly": 7071,
      "Ġerleben": 7072,
      "Ġcosta": 7073,
      "Ġbade": 7074,
      "Ġvolker": 7075,
      "Ġries": 7076,
      "Ġsach": 7077,
      "Ġbequem": 7078,
      "Ġadvanced": 7079,
      "Ġapproved": 7080,
      "Ġplug": 7081,
      "Ġoben": 7082,
      "Ġextend": 7083,
      "fa": 7084,
      "Ġprogra": 7085,
      "club": 7086,
      "stoffe": 7087,
      "Ġ150": 7088,
      "Ġerkennen": 7089,
      "ichtlich": 7090,
      "Ġreforms": 7091,
      "Ġlabor": 7092,
      "Ġvert": 7093,
      "Ġdiscrimin": 7094,
      "Ġtatigkeit": 7095,
      "umen": 7096,
      "km": 7097,
      "Ġsold": 7098,
      "Ġentertain": 7099,
      "Ġwik": 7100,
      "ny": 7101,
      "Ġremind": 7102,
      "Ġgenutzt": 7103,
      "Ġdecide": 7104,
      "Ġgetting": 7105,
      "ifying": 7106,
      "aschine": 7107,
      "Ġwhom": 7108,
      "Ġparticipation": 7109,
      "Ġconclusion": 7110,
      "Ġcircumstances": 7111,
      "Ġleiden": 7112,
      "Ġinside": 7113,
      "Ġinstitutional": 7114,
      "wel": 7115,
      "Ġstraf": 7116,
      "Ġunbedingt": 7117,
      "agraph": 7118,
      "Ġzustimmung": 7119,
      "Ġverpflichtungen": 7120,
      "Ġappo": 7121,
      "yer": 7122,
      "Ġcamera": 7123,
      "Ġextensive": 7124,
      "inal": 7125,
      "Ġeingehen": 7126,
      "Ġroma": 7127,
      "qualitat": 7128,
      "wagen": 7129,
      "iles": 7130,
      "Ġwillkommen": 7131,
      "Ġreduced": 7132,
      "Ġholz": 7133,
      "Ġtut": 7134,
      "rieb": 7135,
      "Ġengagement": 7136,
      "usten": 7137,
      "Ġanstrengungen": 7138,
      "Ġgenannt": 7139,
      "ils": 7140,
      "Ġscope": 7141,
      "Ġaffected": 7142,
      "Ġolymp": 7143,
      "hner": 7144,
      "Ġconfidence": 7145,
      "Ġhinweisen": 7146,
      "Ġstorage": 7147,
      "ole": 7148,
      "Ġmoral": 7149,
      "Ġfax": 7150,
      "70": 7151,
      "acion": 7152,
      "Ġidee": 7153,
      "Ġsupports": 7154,
      "Ġlaut": 7155,
      "ĠausschuÃŁ": 7156,
      "Ġlegitim": 7157,
      "Ġwahrscheinlich": 7158,
      "cd": 7159,
      "pliz": 7160,
      "Ġschre": 7161,
      "Ġfellow": 7162,
      "Ġensuring": 7163,
      "Ġschn": 7164,
      "Ġwirksam": 7165,
      "Ġisol": 7166,
      "Ġpicture": 7167,
      "Ġorganisationen": 7168,
      "Ġlehr": 7169,
      "Ġbeschlossen": 7170,
      "Ġmindestens": 7171,
      "Ġwesentlich": 7172,
      "ray": 7173,
      "Ġcompl": 7174,
      "Ġoperations": 7175,
      "hold": 7176,
      "Ġmini": 7177,
      "Ġsym": 7178,
      "Ġanerkennung": 7179,
      "Ñĥ": 7180,
      "Ġurban": 7181,
      "Ġabschluss": 7182,
      "free": 7183,
      "Ġadjust": 7184,
      "Ġentspricht": 7185,
      "Ġhttp": 7186,
      "gn": 7187,
      "Ġpowerful": 7188,
      "Ġrise": 7189,
      "quate": 7190,
      "Ġfinn": 7191,
      "Ġleav": 7192,
      "Ġtau": 7193,
      "time": 7194,
      "ania": 7195,
      "Ġveroffentlich": 7196,
      "Ġzeichen": 7197,
      "Ġnetworks": 7198,
      "Ġpriorities": 7199,
      "Ġdetailed": 7200,
      "uly": 7201,
      "now": 7202,
      "cles": 7203,
      "Ġrand": 7204,
      "Ġpartnerschaft": 7205,
      "Ġforest": 7206,
      "Ġuberzeugt": 7207,
      "Ġzone": 7208,
      "Ġkreat": 7209,
      "ahnen": 7210,
      "Ġwonderful": 7211,
      "Ġhochwert": 7212,
      "Ġdritten": 7213,
      "Ġgemut": 7214,
      "Ġmov": 7215,
      "Ġgesetzt": 7216,
      "Ġguide": 7217,
      "Ġsalz": 7218,
      "Ġtief": 7219,
      "Ġdepos": 7220,
      "Ġspacious": 7221,
      "inens": 7222,
      "iding": 7223,
      "Ġandererseits": 7224,
      "Ġcontribute": 7225,
      "Ġanimals": 7226,
      "Ġvictims": 7227,
      "Ġobtain": 7228,
      "Ġaw": 7229,
      "Ġsays": 7230,
      "**": 7231,
      "pa": 7232,
      "Ġsobald": 7233,
      "Ġfischerei": 7234,
      "Ġpartei": 7235,
      "Ġprograms": 7236,
      "Ġvorgelegt": 7237,
      "stande": 7238,
      "endence": 7239,
      "enty": 7240,
      "hu": 7241,
      "Ġimag": 7242,
      "Ġflucht": 7243,
      "Ġdor": 7244,
      "âĢľ.": 7245,
      "oto": 7246,
      "Ġhum": 7247,
      "Ġtie": 7248,
      "Ġguidelines": 7249,
      "ĠentschlieÃŁungsant": 7250,
      "Ġimmigration": 7251,
      "Ġberucksichtigen": 7252,
      "Ġassessment": 7253,
      "Ġgesche": 7254,
      "Ġluxur": 7255,
      "Ġcze": 7256,
      "Ġpromotion": 7257,
      "Ġ1990": 7258,
      "iano": 7259,
      "Ġsicherlich": 7260,
      "institution": 7261,
      "tert": 7262,
      "Ġdurchfuhrung": 7263,
      "Ġtelephone": 7264,
      "Ġ45": 7265,
      "Ġabzu": 7266,
      "Ġzeitraum": 7267,
      "Ġfunctions": 7268,
      "Ġbuffet": 7269,
      "Ġbetracht": 7270,
      "Ġwand": 7271,
      "Ġvereinbarung": 7272,
      "Ġphp": 7273,
      "Ġentsprechende": 7274,
      "Ġanp": 7275,
      "Ġentry": 7276,
      "losung": 7277,
      "âĢĿ,": 7278,
      "Ġangegeben": 7279,
      "Ġthousands": 7280,
      "Ġencourage": 7281,
      "artigen": 7282,
      "Ġunterschiedlichen": 7283,
      "Ġadapt": 7284,
      "Ġlandsc": 7285,
      "Ġladen": 7286,
      "gruppen": 7287,
      "kra": 7288,
      "Ġmist": 7289,
      "urses": 7290,
      "etten": 7291,
      "Ġexhibition": 7292,
      "Ġverfugbar": 7293,
      "Ġphotograph": 7294,
      "Ġplayed": 7295,
      "Ġshops": 7296,
      "sektor": 7297,
      "Ġalte": 7298,
      "zeigen": 7299,
      "://": 7300,
      "Ġgezeigt": 7301,
      "Ġbelar": 7302,
      "brit": 7303,
      "Ġtrotzdem": 7304,
      "laufen": 7305,
      "Ġprecisely": 7306,
      "Ġbelong": 7307,
      "Ġbegrenz": 7308,
      "Ġsources": 7309,
      "spunkt": 7310,
      "Ġglobalen": 7311,
      "elte": 7312,
      "Ġstudies": 7313,
      "Ġwaffen": 7314,
      "ores": 7315,
      "Ġzuletzt": 7316,
      "hel": 7317,
      "preis": 7318,
      "endet": 7319,
      "Ġ\"...": 7320,
      "chtet": 7321,
      "Ġkriterien": 7322,
      "Ġade": 7323,
      "cers": 7324,
      "Ġdispos": 7325,
      "zuglich": 7326,
      "hagen": 7327,
      "Ġgeeignet": 7328,
      "Ġberichte": 7329,
      "Ġlarger": 7330,
      "Ġpaul": 7331,
      "Ġfro": 7332,
      "Ġschem": 7333,
      "Ġparagraph": 7334,
      "Ġexactly": 7335,
      "Ġosten": 7336,
      "band": 7337,
      "Ġ;": 7338,
      "fuhrer": 7339,
      "management": 7340,
      "haften": 7341,
      "kap": 7342,
      "Ġfordert": 7343,
      "Ġentweder": 7344,
      "Ġausbildung": 7345,
      "Ġanalyse": 7346,
      "Ġintroduced": 7347,
      "ida": 7348,
      "Ġdedic": 7349,
      "aming": 7350,
      "Ġpurposes": 7351,
      "Ġcomput": 7352,
      "Ġbott": 7353,
      "Ġdirector": 7354,
      "inian": 7355,
      "Ġmetro": 7356,
      "Ġprotected": 7357,
      "Ġanyone": 7358,
      "Ġforget": 7359,
      "Ġfinanzielle": 7360,
      "Ġmanaged": 7361,
      "Ġmehreren": 7362,
      "har": 7363,
      "uft": 7364,
      "Ġmio": 7365,
      "inar": 7366,
      "Ġtabled": 7367,
      "Ġdefend": 7368,
      "Ġerstellen": 7369,
      "Ġimpress": 7370,
      "arge": 7371,
      "Ġregret": 7372,
      "not": 7373,
      "Ġquar": 7374,
      "Ġeffectively": 7375,
      "Ġwundersch": 7376,
      "90": 7377,
      "Ġcompetitive": 7378,
      "Ġgering": 7379,
      "Ġconvenient": 7380,
      "Ġresidence": 7381,
      "Ġnorthern": 7382,
      "ifik": 7383,
      "Ġtranslation": 7384,
      "Ġmund": 7385,
      "enter": 7386,
      "Ġmitteilung": 7387,
      "Ġprufen": 7388,
      "Ġball": 7389,
      "96": 7390,
      "Ġangel": 7391,
      "Ġstrom": 7392,
      "Ġhochst": 7393,
      "Ġconstruct": 7394,
      "Ġgenerally": 7395,
      "Ġverletz": 7396,
      "angs": 7397,
      "ologischen": 7398,
      "Ġsehens": 7399,
      "Ġintroduction": 7400,
      "werke": 7401,
      "Ġdiskrimin": 7402,
      "Ġserved": 7403,
      "lying": 7404,
      "Ġasia": 7405,
      "Ġexclusive": 7406,
      "Ġhoffen": 7407,
      "ta": 7408,
      "Ġtechnische": 7409,
      "Ġmechanis": 7410,
      "Ġvorteile": 7411,
      "konferenz": 7412,
      "Ġverwaltungs": 7413,
      "ci": 7414,
      "lan": 7415,
      "Ġaimed": 7416,
      "Ġdiscussions": 7417,
      "Ġaustral": 7418,
      "Ġfrankfurt": 7419,
      "Ġsitting": 7420,
      "Ġearlier": 7421,
      "Ġkingdom": 7422,
      "Ġimper": 7423,
      "Ġumge": 7424,
      "Ġjene": 7425,
      "Ġerwahnt": 7426,
      "rahmen": 7427,
      "Ġlegen": 7428,
      "Ġrisks": 7429,
      "Ġdeclar": 7430,
      "Ġhintergrund": 7431,
      "itten": 7432,
      "ingu": 7433,
      "Ġrig": 7434,
      "Ġserve": 7435,
      "Ġreferred": 7436,
      "Ġky": 7437,
      "verkehrs": 7438,
      "Ġweap": 7439,
      "Ġmanch": 7440,
      "Ġtheor": 7441,
      "Ġobser": 7442,
      "zeichnen": 7443,
      "Ġinhalte": 7444,
      "Ġmetres": 7445,
      "Ġilleg": 7446,
      "Ġvotes": 7447,
      "Ġakzeptieren": 7448,
      "erstellen": 7449,
      "ova": 7450,
      "Ġmotiv": 7451,
      "Ġanimal": 7452,
      "Ġdevelopments": 7453,
      "Ġestate": 7454,
      "Ġgesprochen": 7455,
      "Ġaufzu": 7456,
      "ael": 7457,
      "Ġspread": 7458,
      "Ġbag": 7459,
      "Ġkatastrop": 7460,
      "Ġcheap": 7461,
      "Ġremark": 7462,
      "ieter": 7463,
      "Ġindia": 7464,
      "Ġkostenlos": 7465,
      "Ġangesprochen": 7466,
      "itzerland": 7467,
      "Ġsle": 7468,
      "Ġbib": 7469,
      "Ġerleich": 7470,
      "Ġexpand": 7471,
      "Ġcritical": 7472,
      "Ġfounded": 7473,
      "Ġmangel": 7474,
      "ervice": 7475,
      "Ġcuis": 7476,
      "Ġkonflikt": 7477,
      "icks": 7478,
      "Ġczech": 7479,
      "Ġministers": 7480,
      "Ġib": 7481,
      "Ġantworten": 7482,
      "icip": 7483,
      "Ġbecoming": 7484,
      "Ġmeetings": 7485,
      "cluded": 7486,
      "Ġunderstanding": 7487,
      "Ġrepres": 7488,
      "Ġbesucher": 7489,
      "Ġzuverlass": 7490,
      "Ġcomment": 7491,
      "Ġseek": 7492,
      "Ġenterprises": 7493,
      "Ġbush": 7494,
      "Ġeingerichtet": 7495,
      "Ġrefuge": 7496,
      "tete": 7497,
      "rankungen": 7498,
      "Ġstated": 7499,
      "Ġselected": 7500,
      "Ġbeauty": 7501,
      "Ġdarunter": 7502,
      "Ġpakistan": 7503,
      "Ġlobby": 7504,
      "Ġexperts": 7505,
      "Ġdoor": 7506,
      "Ġsicherzustellen": 7507,
      "aria": 7508,
      "Ġrepresents": 7509,
      "Ġsnow": 7510,
      "Ġreformen": 7511,
      "called": 7512,
      "ompan": 7513,
      "Ġerf": 7514,
      "Ġ1995": 7515,
      "Ġwants": 7516,
      "Ġacqu": 7517,
      "iums": 7518,
      "Ġkarte": 7519,
      "Ġow": 7520,
      "Ġcorresp": 7521,
      "satze": 7522,
      "Ġlam": 7523,
      "Ġtrave": 7524,
      "zieht": 7525,
      "Ġgriechen": 7526,
      "Ġ2020": 7527,
      "las": 7528,
      "Ġnar": 7529,
      "Ġbestehenden": 7530,
      "Ġactual": 7531,
      "mitglied": 7532,
      "Ġlosen": 7533,
      "Ġduty": 7534,
      "Ġtod": 7535,
      "Ġexpens": 7536,
      "Ġgenehm": 7537,
      "Ġhop": 7538,
      "Ġdiscussed": 7539,
      "Ġkommunikation": 7540,
      "Ġausgaben": 7541,
      "Ġopened": 7542,
      "02": 7543,
      "Ġbeds": 7544,
      "Ġcovered": 7545,
      "tritt": 7546,
      "Ġfebruary": 7547,
      "Ġspat": 7548,
      "Ġcore": 7549,
      "Ġanderes": 7550,
      "Ġlisted": 7551,
      "Ġlikely": 7552,
      "Ġcab": 7553,
      "'ll": 7554,
      "Ġaufnahme": 7555,
      "Â°": 7556,
      "service": 7557,
      "Ġpalastinens": 7558,
      "Ġdebt": 7559,
      "Ġanspruch": 7560,
      "Ġerzielt": 7561,
      "Ġtests": 7562,
      "Ġsto": 7563,
      "Ġnom": 7564,
      "Ġklim": 7565,
      "Ġagen": 7566,
      "Ġ32": 7567,
      "Ġdagegen": 7568,
      "Ġbuildings": 7569,
      "ago": 7570,
      "Ġvoice": 7571,
      "rum": 7572,
      "rete": 7573,
      "fahrens": 7574,
      "jected": 7575,
      "Ġhardware": 7576,
      "Ġfinance": 7577,
      "Ġreserve": 7578,
      "Ġvereinten": 7579,
      "Ġscen": 7580,
      "Ġmonat": 7581,
      "Ġcompar": 7582,
      "after": 7583,
      "Ġwander": 7584,
      "iede": 7585,
      "Ġpfl": 7586,
      "Ġimproving": 7587,
      "Ġpurchase": 7588,
      "oon": 7589,
      "Ġgern": 7590,
      "Ġnation": 7591,
      "Ġvermeiden": 7592,
      "Ġbru": 7593,
      "uben": 7594,
      "schau": 7595,
      "atischen": 7596,
      "Ġunless": 7597,
      "schul": 7598,
      "Ġergreifen": 7599,
      "Ġkenntnis": 7600,
      "Ġsuche": 7601,
      "Ġpleasant": 7602,
      "Ġbarro": 7603,
      "Ġerganz": 7604,
      "Ġbraucht": 7605,
      "wun": 7606,
      "Ġfestgelegt": 7607,
      "Ġcomponents": 7608,
      "amente": 7609,
      "Ġobviously": 7610,
      "Ġconnect": 7611,
      "Ġexpected": 7612,
      "Ġhaltung": 7613,
      "Ġjose": 7614,
      "Ġparalle": 7615,
      "Ġnotwendigen": 7616,
      "Ġcastle": 7617,
      "Ġvalley": 7618,
      "Ġbetrieb": 7619,
      "utzung": 7620,
      "Ġsupporting": 7621,
      "laut": 7622,
      "Ġinformieren": 7623,
      "Ġsamtliche": 7624,
      "Ġvolle": 7625,
      "alled": 7626,
      "Ġtaste": 7627,
      "hnung": 7628,
      "Ġlinked": 7629,
      "mine": 7630,
      "Ġumgesetzt": 7631,
      "Ġfollowed": 7632,
      "Ġdestro": 7633,
      "Ġexplo": 7634,
      "Ġgeandert": 7635,
      "car": 7636,
      "stimmung": 7637,
      "Ġfein": 7638,
      "Ġislands": 7639,
      "Ġgeograph": 7640,
      "categories": 7641,
      "Ġ?": 7642,
      "urt": 7643,
      "Ġstable": 7644,
      "Ġdienen": 7645,
      "Ġclosely": 7646,
      "Ġhands": 7647,
      "wesen": 7648,
      "anne": 7649,
      "Ġcuisine": 7650,
      "Ġbear": 7651,
      "Ġtelevision": 7652,
      "Ġmadr": 7653,
      "ummer": 7654,
      "Ġnachste": 7655,
      "Ġjederzeit": 7656,
      "Ġerfullt": 7657,
      "Ġroute": 7658,
      "Ġitems": 7659,
      "Ġmountains": 7660,
      "Ġspeech": 7661,
      "Ġcoordination": 7662,
      "Ġverbreit": 7663,
      "Ġschwierig": 7664,
      "Ġfixed": 7665,
      "Ġsale": 7666,
      "Ġsauber": 7667,
      "Ġexter": 7668,
      "Ġelimin": 7669,
      "Ġspring": 7670,
      "Ġeinzus": 7671,
      "aler": 7672,
      "Ġshower": 7673,
      "Ġveget": 7674,
      "Ġarten": 7675,
      "itate": 7676,
      "Ġbeziehen": 7677,
      "Ġsouthern": 7678,
      "Ġwettbewerbsfahigkeit": 7679,
      "Ġdegree": 7680,
      "Ġzeich": 7681,
      "Ġromant": 7682,
      "ureau": 7683,
      "Ġunterkategorien": 7684,
      "reiber": 7685,
      "ĠstraÃŁe": 7686,
      "Ġdatei": 7687,
      "Ġstuck": 7688,
      "regel": 7689,
      "Ġcoffee": 7690,
      "Ġcompens": 7691,
      "Ġreject": 7692,
      "union": 7693,
      "Ġorganization": 7694,
      "Ġrichtlinien": 7695,
      "Ġgegenseit": 7696,
      "Ġtypical": 7697,
      "Ġzuvor": 7698,
      "Ġtechnologien": 7699,
      "mel": 7700,
      "ikanischen": 7701,
      "Ġausger": 7702,
      "Ġspeaking": 7703,
      "Ġmonate": 7704,
      "Ġfunktionen": 7705,
      "Ġgain": 7706,
      "Ġlauf": 7707,
      "Ġmemory": 7708,
      "Ġbeitritts": 7709,
      "Ġgovernance": 7710,
      "Ġplaying": 7711,
      "Ġgradu": 7712,
      "Ġprodukten": 7713,
      "auber": 7714,
      "Ġautor": 7715,
      "mode": 7716,
      "luck": 7717,
      "Ġrepresentative": 7718,
      "lebr": 7719,
      "Ġvideos": 7720,
      "Ġmachines": 7721,
      "Ġcards": 7722,
      "Ġgewinn": 7723,
      "britann": 7724,
      "Ġuses": 7725,
      "Ġpalace": 7726,
      "Ġrailway": 7727,
      "atively": 7728,
      "Ġteilweise": 7729,
      "Ġcompetitiveness": 7730,
      "Ġbug": 7731,
      "Ġgutes": 7732,
      "ena": 7733,
      "Ġwire": 7734,
      "Ġconsiderable": 7735,
      "meld": 7736,
      "richtlinie": 7737,
      "Ġalbum": 7738,
      "either": 7739,
      "Ġwent": 7740,
      "Ġgebieten": 7741,
      "Ġswitzerland": 7742,
      "Ġcopyr": 7743,
      "Ġverbessert": 7744,
      "Ġgegenwartig": 7745,
      "kop": 7746,
      "Ġresist": 7747,
      "ensions": 7748,
      "Ġtenn": 7749,
      "Ġtrading": 7750,
      "Ġfortschritt": 7751,
      "iler": 7752,
      "zz": 7753,
      "Ġdramat": 7754,
      "tausch": 7755,
      "Ġwelcher": 7756,
      "Ġlangen": 7757,
      "Ġpermanent": 7758,
      "tv": 7759,
      "Ġinfrastruktur": 7760,
      "Ġbehav": 7761,
      "Ġdatabase": 7762,
      "Ġcontra": 7763,
      "Ġkindern": 7764,
      "Ġsubstantial": 7765,
      "Ġfen": 7766,
      "aktiv": 7767,
      "Ġpolize": 7768,
      "Ġobjekt": 7769,
      "Ġ400": 7770,
      "jekten": 7771,
      "Ġzweifel": 7772,
      "Ġdateien": 7773,
      "Ġstandig": 7774,
      "inzip": 7775,
      "Ġaccompan": 7776,
      "ete": 7777,
      "ienen": 7778,
      "Ġsorgfalt": 7779,
      "Ġdelay": 7780,
      "Ġgreece": 7781,
      "Ġconduct": 7782,
      "Ġreprodu": 7783,
      "Ġchamber": 7784,
      "Ġincorpor": 7785,
      "trage": 7786,
      "spart": 7787,
      "Ġpoten": 7788,
      "Ġdescription": 7789,
      "Ġvorteil": 7790,
      "Ġstattfinden": 7791,
      "svorsitz": 7792,
      "Ġvertrie": 7793,
      "Ġpresence": 7794,
      "Ġiron": 7795,
      "Ġvernunft": 7796,
      "Ġeinkauf": 7797,
      "Ġstrict": 7798,
      "schung": 7799,
      "Ġeingeb": 7800,
      "Ġengineering": 7801,
      "Ġintelle": 7802,
      "freiheit": 7803,
      "Ġdus": 7804,
      "Ġmenschenrechts": 7805,
      "Ġkompon": 7806,
      "Ġjeweils": 7807,
      "Ġeinrichtungen": 7808,
      "zahlt": 7809,
      "karten": 7810,
      "station": 7811,
      "Ġentit": 7812,
      "Ġdritte": 7813,
      "Ġnavig": 7814,
      "Ġiso": 7815,
      "Ġsuffer": 7816,
      "Ġcooper": 7817,
      "Ġborn": 7818,
      "auÃŁ": 7819,
      "Ġmenge": 7820,
      "Ġcommand": 7821,
      "Ġunabhangig": 7822,
      "Ġubernachten": 7823,
      "Ġschlaf": 7824,
      "Ġbutton": 7825,
      "rel": 7826,
      "Ġerzielen": 7827,
      "Ġbrussels": 7828,
      "Ġcra": 7829,
      "Ġwil": 7830,
      "Ġplants": 7831,
      "Ġausdrucklich": 7832,
      "Ġcharter": 7833,
      "ele": 7834,
      "Ġbureau": 7835,
      "Ġticket": 7836,
      "wahr": 7837,
      "Ġgave": 7838,
      "assungs": 7839,
      "Ġhour": 7840,
      "Ġinterface": 7841,
      "Ġupgra": 7842,
      "Ġflash": 7843,
      "Ġcombat": 7844,
      "Ġging": 7845,
      "Ġerfolgen": 7846,
      "Ġancient": 7847,
      "Ġlounge": 7848,
      "Ġproperly": 7849,
      "ilien": 7850,
      "platze": 7851,
      "lav": 7852,
      "Ġgewunsch": 7853,
      "idents": 7854,
      "Ġuna": 7855,
      "Ġdiesel": 7856,
      "Ġterrasse": 7857,
      "Ġsi": 7858,
      "Ġarrival": 7859,
      "using": 7860,
      "Ġsuc": 7861,
      "Ġboot": 7862,
      "ala": 7863,
      "Ġprivile": 7864,
      "35": 7865,
      "Ġerhohen": 7866,
      "Ġwege": 7867,
      "Ġath": 7868,
      "ruckt": 7869,
      "Ġgelangen": 7870,
      "Ġvehicles": 7871,
      "Ġhouses": 7872,
      "Ġdeswegen": 7873,
      "systems": 7874,
      "Ġentirely": 7875,
      "Ġgrenz": 7876,
      "Ġexecutive": 7877,
      "Ġedition": 7878,
      "Ġalloc": 7879,
      "Ġvien": 7880,
      "Ġbetroffenen": 7881,
      "Ġverabschied": 7882,
      "yle": 7883,
      "Ġatlant": 7884,
      "Ġangezeigt": 7885,
      "Ġvisa": 7886,
      "Ġdealing": 7887,
      "mack": 7888,
      "atoren": 7889,
      "krieg": 7890,
      "Ġpin": 7891,
      "Ġungar": 7892,
      "gers": 7893,
      "ibet": 7894,
      "iguration": 7895,
      "aup": 7896,
      "Ġdomestic": 7897,
      "Ġtack": 7898,
      "leitung": 7899,
      "Ġimmobilien": 7900,
      "Ġpolitics": 7901,
      "Ġincome": 7902,
      "Ġ--": 7903,
      "âĢĵ": 7904,
      "Ġwilling": 7905,
      "Ġsou": 7906,
      "stechn": 7907,
      "Ġsonn": 7908,
      "Ġfacing": 7909,
      "schlieÃŁen": 7910,
      "wohner": 7911,
      "Ġthinking": 7912,
      "Ġniemand": 7913,
      "Ġbeseit": 7914,
      "Ġfebruar": 7915,
      "Ġglob": 7916,
      "Ġverlassen": 7917,
      "Ġzentrale": 7918,
      "Ġpractices": 7919,
      "Ġmusste": 7920,
      "ĠgroÃŁbritann": 7921,
      "Ġwien": 7922,
      "Ġsaint": 7923,
      "Ġschreiben": 7924,
      "Ġbelarus": 7925,
      "Ġflexibility": 7926,
      "Ġod": 7927,
      "Ġesc": 7928,
      "kel": 7929,
      "clude": 7930,
      "Ġerstellt": 7931,
      "Ġuniversal": 7932,
      "Ġsagt": 7933,
      "Ġbenach": 7934,
      "Ġbeachten": 7935,
      "Ġsonnen": 7936,
      "Ġabsolut": 7937,
      "schrift": 7938,
      "Ġneither": 7939,
      "Ġcelebr": 7940,
      "Ġhunder": 7941,
      "Ġdifficulties": 7942,
      "Ġalliance": 7943,
      "vey": 7944,
      "Ġfunktioniert": 7945,
      "card": 7946,
      "instr": 7947,
      "Ġabsatz": 7948,
      "Ġfan": 7949,
      "etze": 7950,
      "pper": 7951,
      "Ġklare": 7952,
      "ader": 7953,
      "Ġfailure": 7954,
      "Ġgekommen": 7955,
      "Ġwollte": 7956,
      "Ġorganiz": 7957,
      "Ġbeitritt": 7958,
      "dule": 7959,
      "Ġreferend": 7960,
      "Ġeisen": 7961,
      "Ð²": 7962,
      "war": 7963,
      "gebaut": 7964,
      "Ġadoption": 7965,
      "Ġbanken": 7966,
      "Ġnumbers": 7967,
      "ae": 7968,
      "Ġpeaceful": 7969,
      "Ġbaum": 7970,
      "Ġreicht": 7971,
      "zust": 7972,
      "Ġdesk": 7973,
      "Ġsysteme": 7974,
      "Ġuniversitat": 7975,
      "Ġlearning": 7976,
      "Ġglass": 7977,
      "Ġrecognis": 7978,
      "Ġtsche": 7979,
      "quality": 7980,
      "Ġindustries": 7981,
      "Ġklimawand": 7982,
      "Ġarchitecture": 7983,
      "Ġaverage": 7984,
      "Ġmagaz": 7985,
      "Ġbol": 7986,
      "Ġbetonen": 7987,
      "Ġreisen": 7988,
      "Ġcars": 7989,
      "Ġlift": 7990,
      "Ġmaschinen": 7991,
      "Ġkommenden": 7992,
      "Ġpoland": 7993,
      "Ġmutter": 7994,
      "Ġtoler": 7995,
      "Ġdarstellen": 7996,
      "punkte": 7997,
      "letter": 7998,
      "Ġfischere": 7999,
      "Ġstore": 8000,
      "luÃŁ": 8001,
      "enhagen": 8002,
      "Ġestablishment": 8003,
      "Ġrisiko": 8004,
      "Ġfill": 8005,
      "gewicht": 8006,
      "45": 8007,
      "Ġleistungen": 8008,
      "Ġvent": 8009,
      "Ġstein": 8010,
      "Ġecu": 8011,
      "Ġpositiv": 8012,
      "Ġdiss": 8013,
      "Ġwom": 8014,
      "Ġgeschehen": 8015,
      "Ġmanchmal": 8016,
      "asts": 8017,
      "Ġmodels": 8018,
      "govern": 8019,
      "Ġlif": 8020,
      "Ġsiehe": 8021,
      "was": 8022,
      "Ġrelate": 8023,
      "Ġconsideration": 8024,
      "herstell": 8025,
      "Ġinstrumente": 8026,
      "Ġmadrid": 8027,
      "year": 8028,
      "Ġlokalen": 8029,
      "Â»": 8030,
      "uk": 8031,
      "Ġveranderungen": 8032,
      "achs": 8033,
      "osed": 8034,
      "Ġcub": 8035,
      "Ġunit": 8036,
      "Ġwebseite": 8037,
      "ypt": 8038,
      "Ġnachfolgend": 8039,
      "macht": 8040,
      "Ġsamm": 8041,
      "Ġstatements": 8042,
      "Ġgraf": 8043,
      "Ġprofitieren": 8044,
      "Ġlandschaft": 8045,
      "Ġformen": 8046,
      "Ġgipfel": 8047,
      "Ġabwe": 8048,
      "Ġnetzwerk": 8049,
      "ria": 8050,
      "Ġeinver": 8051,
      "Ġentschlossen": 8052,
      "Ġpercent": 8053,
      "Ġkro": 8054,
      "Ġdienste": 8055,
      "Ġinitiativen": 8056,
      "ura": 8057,
      "Ġsession": 8058,
      "Ġangriff": 8059,
      "Ġpositions": 8060,
      "dp": 8061,
      "Ġpraz": 8062,
      "Ġhalb": 8063,
      "tran": 8064,
      "ode": 8065,
      "Ġstatist": 8066,
      "Ġinstitute": 8067,
      "Ġpersonlich": 8068,
      "Ġanteil": 8069,
      "01": 8070,
      "Ġeiniger": 8071,
      "like": 8072,
      "Ġkonkrete": 8073,
      "imb": 8074,
      "Ġkritik": 8075,
      "Ġstory": 8076,
      "code": 8077,
      "Ġbern": 8078,
      "Ġpara": 8079,
      "Ġabgeordnete": 8080,
      "Ġapplies": 8081,
      "Ġmoglichst": 8082,
      "Ġack": 8083,
      "Ġobserv": 8084,
      "edia": 8085,
      "chem": 8086,
      "Ġmp": 8087,
      "Ġdaraus": 8088,
      "Ġacadem": 8089,
      "Ġapproxim": 8090,
      "ishes": 8091,
      "Ġhinzufugen": 8092,
      "anb": 8093,
      "Ġgewiss": 8094,
      "Ġmax": 8095,
      "portion": 8096,
      "Ġwunsche": 8097,
      "Ġmarg": 8098,
      "ield": 8099,
      "ashion": 8100,
      "Ġmagn": 8101,
      "Ġubergang": 8102,
      "lern": 8103,
      "Ġbecomes": 8104,
      "Ġchan": 8105,
      "Ġkurze": 8106,
      "Ġgir": 8107,
      "Ġzugleich": 8108,
      "Ġ),": 8109,
      "Ġluxury": 8110,
      "etic": 8111,
      "Ġfonds": 8112,
      "Ġbodies": 8113,
      "Ġwenigen": 8114,
      "itel": 8115,
      "Ġpromoting": 8116,
      "Ġfinancing": 8117,
      "Ġtold": 8118,
      "Ġpropose": 8119,
      "entions": 8120,
      "inary": 8121,
      "Ġassemb": 8122,
      "Ġexcept": 8123,
      "Ġtrek": 8124,
      "Ġdemocrats": 8125,
      "iking": 8126,
      "Ġfreie": 8127,
      "making": 8128,
      "pol": 8129,
      "Ġachtung": 8130,
      "Ġverloren": 8131,
      "ound": 8132,
      "Ġinstance": 8133,
      "Ġforderungen": 8134,
      "zwischen": 8135,
      "achtet": 8136,
      "Ġtraum": 8137,
      "Ġinsurance": 8138,
      "Ġdach": 8139,
      "Ġdurchaus": 8140,
      "orient": 8141,
      "Ġzeiten": 8142,
      "Ġhoren": 8143,
      "Ġmitgliedstaat": 8144,
      "Ġherstellung": 8145,
      "Ġangaben": 8146,
      "Ġperspective": 8147,
      "Ġmatch": 8148,
      "Ġmembership": 8149,
      "Ġausgewo": 8150,
      "Ġeads": 8151,
      "rik": 8152,
      "ishing": 8153,
      "Ġexperienced": 8154,
      "Ġnearby": 8155,
      "Ġsucceed": 8156,
      "Ġcourses": 8157,
      "Ġschonen": 8158,
      "Ġhimself": 8159,
      "Ġhumanitarian": 8160,
      "horde": 8161,
      "Ġveroffentlicht": 8162,
      "Ġbee": 8163,
      "Ġalex": 8164,
      "lls": 8165,
      "Ġuberprufen": 8166,
      "Ġcollabor": 8167,
      "hrase": 8168,
      "Ġerklaren": 8169,
      "Ġwindow": 8170,
      "Ġtragt": 8171,
      "erved": 8172,
      "Ġgeoff": 8173,
      "ista": 8174,
      "Ġruman": 8175,
      "Ġmigration": 8176,
      "Ġaussicht": 8177,
      "Ġaims": 8178,
      "Ġgegrundet": 8179,
      "Ġherzlich": 8180,
      "Ġgewahrleistet": 8181,
      "Ġtrib": 8182,
      "32": 8183,
      "Ġsuites": 8184,
      "Ġbarr": 8185,
      "erto": 8186,
      "opt": 8187,
      "Ġbenotigt": 8188,
      "gelt": 8189,
      "Ġlength": 8190,
      "Ġmyself": 8191,
      "Ġeingesch": 8192,
      "Ġdefined": 8193,
      "mental": 8194,
      "ee": 8195,
      "Ġnames": 8196,
      "Ġbackground": 8197,
      "Ġsehenswurd": 8198,
      "Ġparlamentar": 8199,
      "Ġyester": 8200,
      "Ġpure": 8201,
      "iques": 8202,
      "Ġcult": 8203,
      "Ġenormous": 8204,
      "Ñı": 8205,
      "itter": 8206,
      "Ġyes": 8207,
      "Ġbezeichnet": 8208,
      "Ġsanta": 8209,
      "Ġeasier": 8210,
      "Ġassociated": 8211,
      "Ġconcrete": 8212,
      "maÃŁen": 8213,
      "Ġparad": 8214,
      "Ġbetrachtet": 8215,
      "Ġbrussel": 8216,
      "Ġautonom": 8217,
      "itu": 8218,
      "Ġhighlight": 8219,
      "Ġhauses": 8220,
      "eiten": 8221,
      "Ġunterschiedliche": 8222,
      "Ġaccur": 8223,
      "Ġrespond": 8224,
      "Ġacknow": 8225,
      "Ġsigned": 8226,
      "Ġworte": 8227,
      "Ġleb": 8228,
      "tte": 8229,
      "Ġabgeschlossen": 8230,
      "Ġuntern": 8231,
      "Ġjustiz": 8232,
      "Ġimplementing": 8233,
      "Ġgrenzu": 8234,
      "Ġhospital": 8235,
      "isierten": 8236,
      "Ġfreue": 8237,
      "Ġverehr": 8238,
      "law": 8239,
      "Ġtschech": 8240,
      "Ġschone": 8241,
      "Ġverfolgen": 8242,
      "2000": 8243,
      "Ġconnected": 8244,
      "sein": 8245,
      "Ġmik": 8246,
      "new": 8247,
      "Ġstructures": 8248,
      "known": 8249,
      "accept": 8250,
      "Ġhaupts": 8251,
      ");": 8252,
      "Ġtennis": 8253,
      "wissen": 8254,
      "Ġstran": 8255,
      "atzung": 8256,
      "Ġeinigung": 8257,
      "Ġimmediate": 8258,
      "Ġinformed": 8259,
      "Ġspielt": 8260,
      "Ġerscheint": 8261,
      "Ġsat": 8262,
      "Ġgrant": 8263,
      "netz": 8264,
      "Ġagencies": 8265,
      "Ġuberall": 8266,
      "Ġseriously": 8267,
      "Ġkonigreich": 8268,
      "Ġoffensichtlich": 8269,
      "Ġlizenz": 8270,
      "Ġdifferences": 8271,
      "Ġbind": 8272,
      "okraten": 8273,
      "ronom": 8274,
      "Ġadult": 8275,
      "nam": 8276,
      "Ġreducing": 8277,
      "Ġregelung": 8278,
      "hy": 8279,
      "Ġunto": 8280,
      "Ġherausforderung": 8281,
      "Ġamerikanischen": 8282,
      "Ġshared": 8283,
      "Ġgram": 8284,
      "arma": 8285,
      "Ġindire": 8286,
      "Ġadvance": 8287,
      "Ġyesterday": 8288,
      "Ġjac": 8289,
      "Ġtitel": 8290,
      "aries": 8291,
      "Ġverlei": 8292,
      "fuhrten": 8293,
      "Ġpackages": 8294,
      "igem": 8295,
      "Ġdifference": 8296,
      "brauch": 8297,
      "fest": 8298,
      "hus": 8299,
      "Ġproducers": 8300,
      "krise": 8301,
      "Ġratsvorsitz": 8302,
      "Ġkonzentrieren": 8303,
      "Ġevidence": 8304,
      "cont": 8305,
      "Ġwithdra": 8306,
      "Ġpdf": 8307,
      "Ġrechnung": 8308,
      "Ġausges": 8309,
      "Ġbeaches": 8310,
      "Ġcred": 8311,
      "Ġrecognition": 8312,
      "sized": 8313,
      "Ġseven": 8314,
      "Ġstellungnahme": 8315,
      "Ġbedenken": 8316,
      "Ġgewinnen": 8317,
      "Ġnennen": 8318,
      "Ġklaren": 8319,
      "Ġdorf": 8320,
      "Ġcool": 8321,
      "Ġarmen": 8322,
      "Ġpour": 8323,
      "Ġprioritaten": 8324,
      "Ġpic": 8325,
      "arta": 8326,
      "zeichnete": 8327,
      "Ġhoriz": 8328,
      "Ġchap": 8329,
      "Ġrace": 8330,
      "active": 8331,
      "Ġreservation": 8332,
      "Ġsafegu": 8333,
      "ned": 8334,
      "atik": 8335,
      "Ġcopy": 8336,
      "Ġprivacy": 8337,
      "Ġwahrungs": 8338,
      "Ġterritory": 8339,
      "Ġtickets": 8340,
      "Ð¼": 8341,
      "Ġmesse": 8342,
      "Ġubertragen": 8343,
      "sprogramm": 8344,
      "Ġimpossible": 8345,
      "pendence": 8346,
      "inem": 8347,
      "Ġmittelmeer": 8348,
      "Ġsteel": 8349,
      "proble": 8350,
      "]],": 8351,
      "Ġcalling": 8352,
      "Ġeinhaltung": 8353,
      "Ġcarefully": 8354,
      "Ġappar": 8355,
      "Ġjahrhunderts": 8356,
      "Ġmiteinander": 8357,
      "Ġ2011": 8358,
      "iche": 8359,
      "Ġmanage": 8360,
      "Ġdelic": 8361,
      "Ġkost": 8362,
      "Ġconserv": 8363,
      "Ġcombination": 8364,
      "technik": 8365,
      "Ġpaket": 8366,
      "Ġgenuine": 8367,
      "uv": 8368,
      "Ġkirche": 8369,
      "Ġprofess": 8370,
      "Ġowners": 8371,
      "rants": 8372,
      "Ġworksh": 8373,
      "down": 8374,
      "Ġtransition": 8375,
      "Ġchristian": 8376,
      "Ġnahrungs": 8377,
      "Ġappears": 8378,
      "Ġattractive": 8379,
      "Ġgoals": 8380,
      "Ġholidays": 8381,
      "ando": 8382,
      "Ġdry": 8383,
      "Ġverwe": 8384,
      "Ġsav": 8385,
      "ĠentschlieÃŁungsantrag": 8386,
      "Ġdepartment": 8387,
      "Ġrang": 8388,
      "Ġtaglich": 8389,
      "Ġchemical": 8390,
      "ascript": 8391,
      "64": 8392,
      "oms": 8393,
      "Ġyouth": 8394,
      "Ġfas": 8395,
      "Ġlandwir": 8396,
      "Ġcompla": 8397,
      "Ġhappened": 8398,
      "zig": 8399,
      "Ġcombined": 8400,
      "Ġlen": 8401,
      "Ġzut": 8402,
      "Ġdangerous": 8403,
      "Ġaspekt": 8404,
      "Ġumfasst": 8405,
      "Ġleistung": 8406,
      "Ġped": 8407,
      "Ġhamburg": 8408,
      "aust": 8409,
      "uit": 8410,
      "Ġexcess": 8411,
      "Ġendgult": 8412,
      "Ġavailability": 8413,
      "ifiziert": 8414,
      "Ġtruly": 8415,
      "Ġjungen": 8416,
      "Ġassembly": 8417,
      "Ġeuros": 8418,
      "Ġallgemeine": 8419,
      "Ġcondem": 8420,
      "Ġcommunities": 8421,
      "Ġsah": 8422,
      "Ġauseinander": 8423,
      "Ġattach": 8424,
      "Ġsorge": 8425,
      "Ġjack": 8426,
      "Ġdamals": 8427,
      "Ġdiskutieren": 8428,
      "erten": 8429,
      "Ġunterkunft": 8430,
      "Ġmultil": 8431,
      "Ġfruit": 8432,
      "Ġfolgende": 8433,
      "Ġreasonable": 8434,
      "Ġguarantees": 8435,
      "iw": 8436,
      "viel": 8437,
      "Ġunaccept": 8438,
      "Ġschengen": 8439,
      "Ġdevices": 8440,
      "auftrag": 8441,
      "Ġentertainment": 8442,
      "ales": 8443,
      "Ġexpos": 8444,
      "ategory": 8445,
      "Ġdiscrimination": 8446,
      "Ġpoly": 8447,
      "Ġrelativ": 8448,
      "Ġcry": 8449,
      "jahrigen": 8450,
      "Ġapparte": 8451,
      "Ġgult": 8452,
      "folger": 8453,
      "Ġgeleistet": 8454,
      "Ġlesung": 8455,
      "with": 8456,
      "Ġspent": 8457,
      "Ġoccasion": 8458,
      "tenance": 8459,
      "Ġreleased": 8460,
      "Ġfranzosischen": 8461,
      "Ġstol": 8462,
      "Ġideen": 8463,
      "ador": 8464,
      "Ġlicense": 8465,
      "coming": 8466,
      "Ġirish": 8467,
      "issionen": 8468,
      "Ġgolden": 8469,
      "Ġfunktionieren": 8470,
      "Ġspezielle": 8471,
      "ros": 8472,
      "Ġtexte": 8473,
      "04": 8474,
      "Ġtasks": 8475,
      "Ġsehenswurdigkeiten": 8476,
      "icians": 8477,
      "Ġentspannen": 8478,
      "Ġcompared": 8479,
      "Ġpad": 8480,
      "Ġalban": 8481,
      "Ġhersteller": 8482,
      "Ġahead": 8483,
      "door": 8484,
      "Ġdevice": 8485,
      "etzungen": 8486,
      "Ġausgewahl": 8487,
      "Ġadvertising": 8488,
      "leiten": 8489,
      "Ġfulfil": 8490,
      "iÃŁen": 8491,
      "spruch": 8492,
      "Ġdescribed": 8493,
      "Ġskills": 8494,
      "Ġannounced": 8495,
      "Ġverwirk": 8496,
      "Ġvielzahl": 8497,
      "Ġglas": 8498,
      "Ġcer": 8499,
      "Ġgarantiert": 8500,
      "ido": 8501,
      "preise": 8502,
      "Ġjavascript": 8503,
      "ologische": 8504,
      "Ġdesire": 8505,
      "bruch": 8506,
      "Ġbehaup": 8507,
      "Ġrelaxing": 8508,
      "haber": 8509,
      "Ġerforderlichen": 8510,
      "Ġcopyright": 8511,
      "mogen": 8512,
      "Ġarbeitet": 8513,
      "uhren": 8514,
      "Ġms": 8515,
      "opol": 8516,
      "ĠgroÃŁbritannien": 8517,
      "Ġstamm": 8518,
      "Ġnotice": 8519,
      "Ġruhe": 8520,
      "Ġvielmehr": 8521,
      "Ġfeststellen": 8522,
      "Ġfoto": 8523,
      "Ġentdecken": 8524,
      "Ġcold": 8525,
      "Ġtitle": 8526,
      "Ġdete": 8527,
      "Ġfalsch": 8528,
      "Ġroyal": 8529,
      "Ġcharged": 8530,
      "Ġequality": 8531,
      "Ġtatig": 8532,
      "Ġul": 8533,
      "cas": 8534,
      "chtigt": 8535,
      "05": 8536,
      "Ġregistered": 8537,
      "jet": 8538,
      "Ġentdeck": 8539,
      "rest": 8540,
      "Ġfarben": 8541,
      "Ġdomain": 8542,
      "Ġwechsel": 8543,
      "Ġconstitutional": 8544,
      "Ġdich": 8545,
      "Ġcontrary": 8546,
      "Ġfigures": 8547,
      "Ġmichael": 8548,
      "Ġmarkte": 8549,
      "ull": 8550,
      "Ġstarkung": 8551,
      "Ġasylum": 8552,
      "Ġandre": 8553,
      "Ġconsumption": 8554,
      "versorgung": 8555,
      "Ġfilter": 8556,
      "Ġcontinued": 8557,
      "Ġwishes": 8558,
      "Ġpick": 8559,
      "ensus": 8560,
      "condition": 8561,
      "Ġpossibilities": 8562,
      "uting": 8563,
      "west": 8564,
      "www": 8565,
      "Ġanwendungen": 8566,
      "ror": 8567,
      "tele": 8568,
      "Ġcha": 8569,
      "Ġsurface": 8570,
      "Ġclassic": 8571,
      "Ġtheat": 8572,
      "Ġzugriff": 8573,
      "european": 8574,
      "ugos": 8575,
      "Ġreligious": 8576,
      "Ġnaturally": 8577,
      "handels": 8578,
      "Ġkommissions": 8579,
      "straÃŁe": 8580,
      "Ġpred": 8581,
      "Ġgreatest": 8582,
      "Ġkulturellen": 8583,
      "ausschusses": 8584,
      "Ġ00": 8585,
      "Ġexklus": 8586,
      "itious": 8587,
      "Ġartists": 8588,
      "road": 8589,
      "Ġmaria": 8590,
      "uts": 8591,
      "Ġwarten": 8592,
      "acher": 8593,
      "Ġverhaltnis": 8594,
      "strom": 8595,
      "Ġmoving": 8596,
      "Ġparticipate": 8597,
      "schreit": 8598,
      "Ġeinfache": 8599,
      "verein": 8600,
      "Ġtourismus": 8601,
      "Ġprospect": 8602,
      "Ġappeal": 8603,
      "Ġallowing": 8604,
      "Ġfashion": 8605,
      "Ġexpend": 8606,
      "onia": 8607,
      "Ġclaims": 8608,
      "schlage": 8609,
      "Ġarbeitslosigkeit": 8610,
      "Ġhingewiesen": 8611,
      "Ġ1994": 8612,
      "Ġausreichend": 8613,
      "lager": 8614,
      "33": 8615,
      "Ġauthent": 8616,
      "etter": 8617,
      "Ġmys": 8618,
      "ela": 8619,
      "Ġgestalten": 8620,
      "Ġunacceptable": 8621,
      "Ġlit": 8622,
      "ĠâĢ¢": 8623,
      "Ġwiederauf": 8624,
      "Ġras": 8625,
      "Ġexplor": 8626,
      "Ġgewohn": 8627,
      "ikations": 8628,
      "Ġsteigen": 8629,
      "Ġengland": 8630,
      "75": 8631,
      "Ġschad": 8632,
      "Ġfotos": 8633,
      "'re": 8634,
      "Ġpopul": 8635,
      "Ġintroduce": 8636,
      "Ġuberwachung": 8637,
      "Ġheimat": 8638,
      "fle": 8639,
      "raucher": 8640,
      "Ġvari": 8641,
      "Ġsurrounded": 8642,
      "table": 8643,
      "ĠgroÃŁes": 8644,
      "Ġmittl": 8645,
      "Ġbudgets": 8646,
      "Ġload": 8647,
      "Ġentwicklungen": 8648,
      "moglich": 8649,
      "Ġbesitzt": 8650,
      "Ġcontinues": 8651,
      "Ġpatienten": 8652,
      "Ġpolen": 8653,
      "Ġrichtigen": 8654,
      "aken": 8655,
      "Ġdog": 8656,
      "Ġbetrachten": 8657,
      "eto": 8658,
      "Ġraise": 8659,
      "Ġrome": 8660,
      "Ġattractions": 8661,
      "Ġinflation": 8662,
      "Ġcath": 8663,
      "Ġextended": 8664,
      "Ġatom": 8665,
      "Ġfem": 8666,
      "Ġdatenbank": 8667,
      ".âĢĿ": 8668,
      "immungen": 8669,
      "gestimmt": 8670,
      "Ġcategory": 8671,
      "Ġcompleted": 8672,
      "Ġbarroso": 8673,
      "Ġafrican": 8674,
      "Ġsurrounding": 8675,
      "Ġlibrary": 8676,
      "vier": 8677,
      "herr": 8678,
      "ifen": 8679,
      "Ġprioritat": 8680,
      "Ġmeters": 8681,
      "Ġanony": 8682,
      "Ġturkish": 8683,
      "Ġweiterer": 8684,
      "2001": 8685,
      "Ġholl": 8686,
      "2010": 8687,
      "Ġdrogen": 8688,
      "Ġenhan": 8689,
      "Ġwashing": 8690,
      "Ġqualitats": 8691,
      "Ġmartin": 8692,
      "Ġregionalen": 8693,
      "Ġ75": 8694,
      "Ġdedicated": 8695,
      "Ġeinsetzen": 8696,
      "Ġinternationaler": 8697,
      "Ġadvent": 8698,
      "Ġcloser": 8699,
      "Ġmaintenance": 8700,
      "Ġflexibilitat": 8701,
      "Ġswe": 8702,
      "Ġflight": 8703,
      "Ġstrongly": 8704,
      "Ġice": 8705,
      "Ġnaher": 8706,
      "Ġburden": 8707,
      "Ġindex": 8708,
      "Ġvienna": 8709,
      "Ġenables": 8710,
      "Ġafrika": 8711,
      "Ġindividuals": 8712,
      "Ġentstanden": 8713,
      "haltet": 8714,
      "Ġgegensatz": 8715,
      "Ġdisease": 8716,
      "Ġzoll": 8717,
      "ilst": 8718,
      "Ġtotally": 8719,
      "ula": 8720,
      "Ġ36": 8721,
      "Ġentitled": 8722,
      "force": 8723,
      "Ġeconomies": 8724,
      "Ġeingefuhrt": 8725,
      "Ġautomob": 8726,
      "komp": 8727,
      "mes": 8728,
      "Ġcontrols": 8729,
      "Ġentwurf": 8730,
      "Ġbedurfnisse": 8731,
      "%.": 8732,
      "Ġvollkommen": 8733,
      "det": 8734,
      "Ġsell": 8735,
      "Ġvorrang": 8736,
      "Ġdient": 8737,
      "Ġsatellite": 8738,
      "Ġstone": 8739,
      "Ġarz": 8740,
      "Ġcount": 8741,
      "Ġtechnik": 8742,
      "Ġfernse": 8743,
      "Ġcontemporary": 8744,
      "Ġirland": 8745,
      "Ġprotest": 8746,
      "Ġgang": 8747,
      "Ġeuropeans": 8748,
      "zeption": 8749,
      "pres": 8750,
      "Ġbound": 8751,
      "partner": 8752,
      "anim": 8753,
      "Ġnether": 8754,
      "Ġproblemen": 8755,
      "Ġbeginnt": 8756,
      "Ġideale": 8757,
      "Ġvisual": 8758,
      "Ġhochste": 8759,
      "Ġexercise": 8760,
      "Ġanlagen": 8761,
      "Ġliqu": 8762,
      "Ġverteidigung": 8763,
      "Ġbeschreibung": 8764,
      "Ġrechnungs": 8765,
      "Ġusb": 8766,
      "Ġestablishing": 8767,
      "ua": 8768,
      "Ġurs": 8769,
      "Ġprison": 8770,
      "Ġteilnehmer": 8771,
      "Ġreligion": 8772,
      "pak": 8773,
      "ysteme": 8774,
      "orgt": 8775,
      "etragen": 8776,
      "95": 8777,
      "gewohn": 8778,
      "Ġconcert": 8779,
      "Ġwirks": 8780,
      "Ġindependence": 8781,
      "Ġexpression": 8782,
      "Ġdeposit": 8783,
      "Ġrevision": 8784,
      "Ġparallel": 8785,
      "orten": 8786,
      "Ġsoweit": 8787,
      "Ġreliable": 8788,
      "Ġinspir": 8789,
      "Ġkeinerlei": 8790,
      "Ġbestatigt": 8791,
      "Ġsaw": 8792,
      "Ġpremier": 8793,
      "Ġmussten": 8794,
      "Ġsky": 8795,
      "Ġkandid": 8796,
      "Ġgeschaftsordnung": 8797,
      "going": 8798,
      "Ġenglisch": 8799,
      "Ġbewertung": 8800,
      "Ġhaut": 8801,
      "Ġvorliegenden": 8802,
      "windigkeit": 8803,
      "Ġflag": 8804,
      "Ġsched": 8805,
      "Ġerfre": 8806,
      "zentr": 8807,
      "Ġtel": 8808,
      "grunde": 8809,
      "Ġfuhrung": 8810,
      "Ġrechten": 8811,
      "Ġcash": 8812,
      "Ġscript": 8813,
      "Ġpill": 8814,
      "Ġdestroy": 8815,
      "Ġdynamic": 8816,
      "Ġunterstutze": 8817,
      "wachst": 8818,
      "Ġunf": 8819,
      "Ġforced": 8820,
      "Ġwhilst": 8821,
      "Ġhonourable": 8822,
      "steuer": 8823,
      "Ġerkennt": 8824,
      "ni": 8825,
      "Ġmittels": 8826,
      "Ġelemente": 8827,
      "Ġstimul": 8828,
      "eller": 8829,
      "Ġrecovery": 8830,
      "Ġnos": 8831,
      "Ġnotes": 8832,
      "Ġverpflichtung": 8833,
      "pub": 8834,
      "Ġkas": 8835,
      "Ġerh": 8836,
      "Ġconfir": 8837,
      "log": 8838,
      "tex": 8839,
      "Ġtrial": 8840,
      "Ġaircraft": 8841,
      "Ġfluchtl": 8842,
      "Ġverfolgt": 8843,
      "Ġaltstadt": 8844,
      "Ġniederl": 8845,
      "Ġweapons": 8846,
      "Ġglobalisierung": 8847,
      "Ġthor": 8848,
      "liegt": 8849,
      "Ġgeschutzt": 8850,
      "lichem": 8851,
      "Ġspending": 8852,
      "Ġï¿½": 8853,
      "Ġsamp": 8854,
      "rupt": 8855,
      "Ġforth": 8856,
      "Ġgranted": 8857,
      "Ġsides": 8858,
      "atever": 8859,
      "Ġbeteiligt": 8860,
      "Ġteams": 8861,
      "Ġurgent": 8862,
      "Ġpharma": 8863,
      "gs": 8864,
      "Ġconclusions": 8865,
      "Ġgriechenland": 8866,
      "reiten": 8867,
      "Ġpolitischer": 8868,
      "Ġgeheim": 8869,
      "Ġram": 8870,
      "Ġinstalled": 8871,
      "Ġdecla": 8872,
      "Ġlatin": 8873,
      "Ġzahlungs": 8874,
      "zin": 8875,
      "Ġstands": 8876,
      "Ġeuropaer": 8877,
      "Ġscale": 8878,
      "Ġentste": 8879,
      "ox": 8880,
      "Ġnewsletter": 8881,
      "sterne": 8882,
      "Ġwichtigste": 8883,
      "Ġprevention": 8884,
      "Ġkaufen": 8885,
      "Ġlord": 8886,
      "Ġumfassende": 8887,
      "Ġgerichtshof": 8888,
      "uerung": 8889,
      "Ġtheater": 8890,
      "Ġreden": 8891,
      "Ġergeben": 8892,
      "Ġmeant": 8893,
      "Ġamaz": 8894,
      "Ġempfehlen": 8895,
      "Ġnik": 8896,
      "bett": 8897,
      "piel": 8898,
      "Ġausst": 8899,
      "Ġmi": 8900,
      "istisch": 8901,
      "wortet": 8902,
      "abl": 8903,
      "Ġfailed": 8904,
      "Ġhill": 8905,
      "Ġkept": 8906,
      "Ġsage": 8907,
      "Ġschuld": 8908,
      "Ġregistration": 8909,
      "Ġsolcher": 8910,
      "spap": 8911,
      "ĠgroÃŁeren": 8912,
      "Ġstadte": 8913,
      "hrt": 8914,
      "Ġbonus": 8915,
      "Ġuni": 8916,
      "Ġnutzer": 8917,
      "Ġperfectly": 8918,
      "Ġfavor": 8919,
      "Ġsofern": 8920,
      "amin": 8921,
      "agne": 8922,
      "Ġerwer": 8923,
      "mittag": 8924,
      "Ġadvice": 8925,
      "Ġultim": 8926,
      "Ġprotocol": 8927,
      "Ġfiscal": 8928,
      "Ġconvinced": 8929,
      "vorschlag": 8930,
      "Ġwald": 8931,
      "Ġworten": 8932,
      "Ġmeeres": 8933,
      "Ġzuerst": 8934,
      "Ġmassive": 8935,
      "Ġrealitat": 8936,
      "Ġindien": 8937,
      "hlt": 8938,
      "Ġcamping": 8939,
      "Ġbiggest": 8940,
      "Ġbalcon": 8941,
      "Ġengag": 8942,
      "Ġokon": 8943,
      "itage": 8944,
      "anen": 8945,
      "Ġmarken": 8946,
      "Ġsubsequ": 8947,
      "Ġeigentum": 8948,
      "Ġplanet": 8949,
      "Ġtisch": 8950,
      "Ġwhatever": 8951,
      "Ġgarantieren": 8952,
      "Ġpact": 8953,
      "Ġunable": 8954,
      "Ġniveau": 8955,
      "Ġsomeone": 8956,
      "Ġarticles": 8957,
      "look": 8958,
      "onal": 8959,
      "Ġcm": 8960,
      "stark": 8961,
      "tzentrum": 8962,
      "Ġbeschaftigungs": 8963,
      "Ġbeinhaltet": 8964,
      "plant": 8965,
      "27": 8966,
      "Ġbeur": 8967,
      "Ġkomment": 8968,
      "Ġmetal": 8969,
      "reisen": 8970,
      "Ġcompat": 8971,
      "Ġfactors": 8972,
      "Ġteilnehmen": 8973,
      "center": 8974,
      "Ġgegenwartigen": 8975,
      "Ġregelungen": 8976,
      "pap": 8977,
      "rates": 8978,
      "Ġzo": 8979,
      "Ġhof": 8980,
      "Ġpayments": 8981,
      "Ġvehicle": 8982,
      "Ġni": 8983,
      "spar": 8984,
      "utung": 8985,
      "Ġselten": 8986,
      "Ġaustrian": 8987,
      "Ġverbundenen": 8988,
      "pan": 8989,
      "Ġweight": 8990,
      "attform": 8991,
      "Ġabsicht": 8992,
      "Ġvereinfach": 8993,
      "Ġpassed": 8994,
      "ktive": 8995,
      "Ġpassword": 8996,
      "Ġoutstanding": 8997,
      "Ġmindest": 8998,
      "ktiv": 8999,
      "Ġcroat": 9000,
      "Ġextreme": 9001,
      "wers": 9002,
      "Ġdiesbe": 9003,
      "Ġbooks": 9004,
      "ktors": 9005,
      "Ġelection": 9006,
      "Ġdefinit": 9007,
      "ĠmaÃŁe": 9008,
      "Ġexem": 9009,
      "Ġgreek": 9010,
      "Ġjunge": 9011,
      "Ġsieben": 9012,
      "Ġnetherlands": 9013,
      "Ġwealth": 9014,
      "Ġachieving": 9015,
      "Ġcontinuing": 9016,
      "Ġbeteiligung": 9017,
      "Ġcreative": 9018,
      "Ġgrenzuber": 9019,
      "26": 9020,
      "Ġgratul": 9021,
[...]
